#include "tfLite_model.h"

unsigned char tfLite_model[] = {
  0x1c, 0x00, 0x00, 0x00, 0x54, 0x46, 0x4c, 0x33, 0x14, 0x00, 0x20, 0x00,
  0x04, 0x00, 0x08, 0x00, 0x0c, 0x00, 0x10, 0x00, 0x14, 0x00, 0x00, 0x00,
  0x18, 0x00, 0x1c, 0x00, 0x14, 0x00, 0x00, 0x00, 0x03, 0x00, 0x00, 0x00,
  0x18, 0x00, 0x00, 0x00, 0x20, 0x00, 0x00, 0x00, 0xa4, 0x00, 0x00, 0x00,
  0x20, 0x00, 0x00, 0x00, 0x4c, 0x00, 0x00, 0x00, 0x44, 0x00, 0x00, 0x00,
  0x02, 0x00, 0x00, 0x00, 0xc0, 0x02, 0x00, 0x00, 0x54, 0x01, 0x00, 0x00,
  0x01, 0x00, 0x00, 0x00, 0xa8, 0x00, 0x00, 0x00, 0x0a, 0x00, 0x00, 0x00,
  0x08, 0x38, 0x00, 0x00, 0x04, 0x38, 0x00, 0x00, 0x00, 0x36, 0x00, 0x00,
  0x7c, 0x35, 0x00, 0x00, 0xe0, 0x05, 0x00, 0x00, 0x44, 0x03, 0x00, 0x00,
  0xf0, 0x37, 0x00, 0x00, 0xec, 0x37, 0x00, 0x00, 0xe8, 0x37, 0x00, 0x00,
  0x3c, 0x00, 0x00, 0x00, 0x00, 0x00, 0x00, 0x00, 0x01, 0x00, 0x00, 0x00,
  0x0c, 0x00, 0x00, 0x00, 0x08, 0x00, 0x0c, 0x00, 0x04, 0x00, 0x08, 0x00,
  0x08, 0x00, 0x00, 0x00, 0x08, 0x00, 0x00, 0x00, 0x09, 0x00, 0x00, 0x00,
  0x13, 0x00, 0x00, 0x00, 0x6d, 0x69, 0x6e, 0x5f, 0x72, 0x75, 0x6e, 0x74,
  0x69, 0x6d, 0x65, 0x5f, 0x76, 0x65, 0x72, 0x73, 0x69, 0x6f, 0x6e, 0x00,
  0x5e, 0xca, 0xff, 0xff, 0x04, 0x00, 0x00, 0x00, 0x10, 0x00, 0x00, 0x00,
  0x31, 0x2e, 0x35, 0x2e, 0x30, 0x00, 0x00, 0x00, 0x00, 0x00, 0x00, 0x00,
  0x00, 0x00, 0x00, 0x00, 0x0f, 0x00, 0x00, 0x00, 0x4d, 0x4c, 0x49, 0x52,
  0x20, 0x43, 0x6f, 0x6e, 0x76, 0x65, 0x72, 0x74, 0x65, 0x64, 0x2e, 0x00,
  0x00, 0x00, 0x0e, 0x00, 0x18, 0x00, 0x04, 0x00, 0x08, 0x00, 0x0c, 0x00,
  0x10, 0x00, 0x14, 0x00, 0x0e, 0x00, 0x00, 0x00, 0x14, 0x00, 0x00, 0x00,
  0x34, 0x00, 0x00, 0x00, 0x38, 0x00, 0x00, 0x00, 0x3c, 0x00, 0x00, 0x00,
  0x48, 0x00, 0x00, 0x00, 0x08, 0x00, 0x00, 0x00, 0xfc, 0x36, 0x00, 0x00,
  0x84, 0x36, 0x00, 0x00, 0xd8, 0x34, 0x00, 0x00, 0x74, 0x34, 0x00, 0x00,
  0xd8, 0x04, 0x00, 0x00, 0xec, 0x01, 0x00, 0x00, 0x04, 0x01, 0x00, 0x00,
  0x7c, 0x00, 0x00, 0x00, 0x01, 0x00, 0x00, 0x00, 0x00, 0x00, 0x00, 0x00,
  0x01, 0x00, 0x00, 0x00, 0x07, 0x00, 0x00, 0x00, 0x03, 0x00, 0x00, 0x00,
  0x74, 0x01, 0x00, 0x00, 0xb4, 0x00, 0x00, 0x00, 0x1c, 0x00, 0x00, 0x00,
  0x04, 0x00, 0x00, 0x00, 0x6d, 0x61, 0x69, 0x6e, 0x00, 0x00, 0x0e, 0x00,
  0x18, 0x00, 0x08, 0x00, 0x0c, 0x00, 0x10, 0x00, 0x07, 0x00, 0x14, 0x00,
  0x0e, 0x00, 0x00, 0x00, 0x00, 0x00, 0x00, 0x09, 0x01, 0x00, 0x00, 0x00,
  0x1c, 0x00, 0x00, 0x00, 0x10, 0x00, 0x00, 0x00, 0x04, 0x00, 0x00, 0x00,
  0x2a, 0xcb, 0xff, 0xff, 0x00, 0x00, 0x80, 0x3f, 0x01, 0x00, 0x00, 0x00,
  0x07, 0x00, 0x00, 0x00, 0x01, 0x00, 0x00, 0x00, 0x06, 0x00, 0x00, 0x00,
  0xa4, 0xfe, 0xff, 0xff, 0x19, 0x00, 0x00, 0x00, 0x00, 0x00, 0x00, 0x19,
  0x01, 0x00, 0x00, 0x00, 0xb0, 0xc9, 0xff, 0xff, 0x14, 0x00, 0x00, 0x00,
  0x08, 0x00, 0x00, 0x00, 0x18, 0x00, 0x00, 0x00, 0x30, 0x00, 0x00, 0x00,
  0x20, 0x00, 0x00, 0x00, 0x02, 0x00, 0x00, 0x00, 0x01, 0x00, 0x00, 0x00,
  0x02, 0x00, 0x00, 0x00, 0x08, 0x00, 0x00, 0x00, 0x49, 0x64, 0x65, 0x6e,
  0x74, 0x69, 0x74, 0x79, 0x00, 0x00, 0x00, 0x00, 0x02, 0x00, 0x00, 0x00,
  0xff, 0xff, 0xff, 0xff, 0x02, 0x00, 0x00, 0x00, 0x9c, 0xcb, 0xff, 0xff,
  0x00, 0x00, 0x0e, 0x00, 0x14, 0x00, 0x00, 0x00, 0x08, 0x00, 0x0c, 0x00,
  0x07, 0x00, 0x10, 0x00, 0x0e, 0x00, 0x00, 0x00, 0x00, 0x00, 0x00, 0x08,
  0x18, 0x00, 0x00, 0x00, 0x0c, 0x00, 0x00, 0x00, 0x04, 0x00, 0x00, 0x00,
  0xb8, 0xc9, 0xff, 0xff, 0x01, 0x00, 0x00, 0x00, 0x06, 0x00, 0x00, 0x00,
  0x03, 0x00, 0x00, 0x00, 0x05, 0x00, 0x00, 0x00, 0x04, 0x00, 0x00, 0x00,
  0x02, 0x00, 0x00, 0x00, 0x34, 0xca, 0xff, 0xff, 0x14, 0x00, 0x00, 0x00,
  0x07, 0x00, 0x00, 0x00, 0x18, 0x00, 0x00, 0x00, 0x68, 0x00, 0x00, 0x00,
  0x58, 0x00, 0x00, 0x00, 0x02, 0x00, 0x00, 0x00, 0x01, 0x00, 0x00, 0x00,
  0x02, 0x00, 0x00, 0x00, 0x42, 0x00, 0x00, 0x00, 0x73, 0x65, 0x71, 0x75,
  0x65, 0x6e, 0x74, 0x69, 0x61, 0x6c, 0x5f, 0x31, 0x2f, 0x64, 0x65, 0x6e,
  0x73, 0x65, 0x5f, 0x44, 0x65, 0x6e, 0x73, 0x65, 0x32, 0x2f, 0x4d, 0x61,
  0x74, 0x4d, 0x75, 0x6c, 0x3b, 0x73, 0x65, 0x71, 0x75, 0x65, 0x6e, 0x74,
  0x69, 0x61, 0x6c, 0x5f, 0x31, 0x2f, 0x64, 0x65, 0x6e, 0x73, 0x65, 0x5f,
  0x44, 0x65, 0x6e, 0x73, 0x65, 0x32, 0x2f, 0x42, 0x69, 0x61, 0x73, 0x41,
  0x64, 0x64, 0x00, 0x00, 0x02, 0x00, 0x00, 0x00, 0xff, 0xff, 0xff, 0xff,
  0x02, 0x00, 0x00, 0x00, 0x58, 0xcc, 0xff, 0xff, 0x00, 0x00, 0x0e, 0x00,
  0x16, 0x00, 0x00, 0x00, 0x08, 0x00, 0x0c, 0x00, 0x07, 0x00, 0x10, 0x00,
  0x0e, 0x00, 0x00, 0x00, 0x00, 0x00, 0x00, 0x08, 0x24, 0x00, 0x00, 0x00,
  0x18, 0x00, 0x00, 0x00, 0x0c, 0x00, 0x00, 0x00, 0x00, 0x00, 0x06, 0x00,
  0x08, 0x00, 0x07, 0x00, 0x06, 0x00, 0x00, 0x00, 0x00, 0x00, 0x00, 0x01,
  0x01, 0x00, 0x00, 0x00, 0x05, 0x00, 0x00, 0x00, 0x03, 0x00, 0x00, 0x00,
  0x00, 0x00, 0x00, 0x00, 0x03, 0x00, 0x00, 0x00, 0x01, 0x00, 0x00, 0x00,
  0x0c, 0x00, 0x10, 0x00, 0x0b, 0x00, 0x00, 0x00, 0x0c, 0x00, 0x04, 0x00,
  0x0c, 0x00, 0x00, 0x00, 0x09, 0x00, 0x00, 0x00, 0x00, 0x00, 0x00, 0x09,
  0x01, 0x00, 0x00, 0x00, 0x18, 0xcb, 0xff, 0xff, 0x14, 0x00, 0x00, 0x00,
  0x06, 0x00, 0x00, 0x00, 0x18, 0x00, 0x00, 0x00, 0x88, 0x00, 0x00, 0x00,
  0x78, 0x00, 0x00, 0x00, 0x02, 0x00, 0x00, 0x00, 0x01, 0x00, 0x00, 0x00,
  0x48, 0x00, 0x00, 0x00, 0x61, 0x00, 0x00, 0x00, 0x73, 0x65, 0x71, 0x75,
  0x65, 0x6e, 0x74, 0x69, 0x61, 0x6c, 0x5f, 0x31, 0x2f, 0x64, 0x65, 0x6e,
  0x73, 0x65, 0x5f, 0x44, 0x65, 0x6e, 0x73, 0x65, 0x31, 0x2f, 0x4d, 0x61,
  0x74, 0x4d, 0x75, 0x6c, 0x3b, 0x73, 0x65, 0x71, 0x75, 0x65, 0x6e, 0x74,
  0x69, 0x61, 0x6c, 0x5f, 0x31, 0x2f, 0x64, 0x65, 0x6e, 0x73, 0x65, 0x5f,
  0x44, 0x65, 0x6e, 0x73, 0x65, 0x31, 0x2f, 0x42, 0x69, 0x61, 0x73, 0x41,
  0x64, 0x64, 0x3b, 0x73, 0x65, 0x71, 0x75, 0x65, 0x6e, 0x74, 0x69, 0x61,
  0x6c, 0x5f, 0x31, 0x2f, 0x64, 0x65, 0x6e, 0x73, 0x65, 0x5f, 0x44, 0x65,
  0x6e, 0x73, 0x65, 0x31, 0x2f, 0x52, 0x65, 0x6c, 0x75, 0x00, 0x00, 0x00,
  0x02, 0x00, 0x00, 0x00, 0xff, 0xff, 0xff, 0xff, 0x48, 0x00, 0x00, 0x00,
  0x50, 0xcb, 0xff, 0xff, 0x56, 0xcd, 0xff, 0xff, 0x04, 0x00, 0x00, 0x00,
  0x40, 0x02, 0x00, 0x00, 0xa3, 0x84, 0x14, 0x3e, 0xda, 0x12, 0x02, 0xbf,
  0xb0, 0xfa, 0x1a, 0x3e, 0x92, 0xd3, 0xf0, 0xbd, 0x39, 0xf4, 0x87, 0xbe,
  0x60, 0x70, 0xb3, 0xbe, 0x16, 0xa0, 0x24, 0x3e, 0x00, 0x64, 0x51, 0xbe,
  0x27, 0xbd, 0xb9, 0xbc, 0xa5, 0x42, 0xc9, 0xbe, 0x45, 0xf5, 0x23, 0xbe,
  0xfe, 0xaf, 0x7e, 0x3e, 0x29, 0x89, 0x20, 0x3d, 0x9f, 0x90, 0xe9, 0xbe,
  0x89, 0xe8, 0xdf, 0x3e, 0xaf, 0xf5, 0x16, 0xbe, 0x00, 0x15, 0xf1, 0xbc,
  0x1d, 0x85, 0xf6, 0xbe, 0x2b, 0xe7, 0x15, 0xbe, 0x2d, 0xc7, 0x77, 0x3d,
  0x95, 0xd5, 0xaa, 0xbe, 0xe5, 0xd0, 0x82, 0xbe, 0xd9, 0xfc, 0x1e, 0xbe,
  0x25, 0x90, 0x54, 0xbe, 0x1b, 0xe9, 0x5d, 0xbe, 0x1d, 0xb2, 0x99, 0xbe,
  0xc2, 0x22, 0x4f, 0x3d, 0x3d, 0x57, 0x01, 0xbe, 0xf1, 0x6f, 0xec, 0x3d,
  0x90, 0x23, 0x71, 0xbe, 0x04, 0xfc, 0xba, 0xbd, 0xef, 0x3a, 0x65, 0xbe,
  0x7c, 0xb4, 0x2b, 0x3e, 0x5b, 0xf7, 0xa9, 0xbd, 0x51, 0x12, 0x8f, 0xbd,
  0x62, 0xdb, 0x00, 0xbe, 0xad, 0x45, 0xe1, 0xbd, 0x6e, 0x45, 0x70, 0x3e,
  0x2e, 0x12, 0x89, 0x3e, 0xe7, 0x35, 0x47, 0xbd, 0x6c, 0x94, 0x4e, 0xbe,
  0x4a, 0x02, 0xb6, 0xbe, 0x1d, 0x2a, 0x7b, 0x3e, 0xd6, 0x48, 0xd5, 0xbd,
  0x95, 0x50, 0xd2, 0xbd, 0x4f, 0xde, 0xcf, 0xbd, 0xa8, 0x34, 0x22, 0xbe,
  0xdf, 0x8b, 0xcc, 0x3e, 0x8d, 0x7a, 0xde, 0xbe, 0x03, 0x87, 0xdd, 0xbe,
  0xab, 0x5c, 0x95, 0xbe, 0x30, 0x89, 0x2b, 0xbe, 0x07, 0x26, 0x7a, 0x3d,
  0x0d, 0x97, 0xb9, 0x3c, 0xd2, 0x6f, 0xb6, 0x3d, 0xfd, 0x17, 0x0b, 0xbe,
  0x91, 0x54, 0x38, 0x3e, 0x2e, 0x40, 0x86, 0xbe, 0xd5, 0xaa, 0xd7, 0xbd,
  0x2f, 0x6c, 0x03, 0x3d, 0xe1, 0x83, 0x73, 0xbe, 0xfa, 0xdb, 0xad, 0x3b,
  0x9e, 0xfb, 0x3a, 0xbe, 0x16, 0x18, 0xca, 0x3e, 0xab, 0xcd, 0x9a, 0xbe,
  0x3f, 0x4a, 0xe8, 0xbe, 0x49, 0x11, 0x1a, 0x3e, 0x24, 0xf8, 0x59, 0xbe,
  0x6e, 0xfa, 0x84, 0xbe, 0x73, 0x90, 0x5d, 0x3d, 0xa9, 0xc0, 0x72, 0xbe,
  0x19, 0x27, 0xfb, 0xbd, 0xc6, 0x5b, 0x8c, 0xbe, 0xad, 0x9e, 0x3d, 0x3e,
  0x68, 0x67, 0xa1, 0x3c, 0xda, 0xdb, 0xa6, 0x3c, 0x7b, 0x78, 0x05, 0x3e,
  0x5c, 0x18, 0x83, 0x3e, 0x99, 0x9b, 0x8a, 0xbd, 0x5a, 0x08, 0x77, 0x3e,
  0x37, 0x3d, 0x94, 0xbe, 0xe4, 0x88, 0x99, 0x3e, 0x11, 0x49, 0xba, 0x3c,
  0x1a, 0x01, 0x0e, 0xbe, 0x09, 0x28, 0x2c, 0xbd, 0x41, 0x3f, 0x00, 0x3f,
  0x21, 0xd0, 0xbd, 0xbe, 0x73, 0xc5, 0x61, 0xbe, 0xe4, 0x39, 0x27, 0x3e,
  0x91, 0xc2, 0x03, 0x3f, 0xc5, 0x43, 0x0d, 0x3d, 0xce, 0xd6, 0x24, 0xbe,
  0x8a, 0xa8, 0x5e, 0x3e, 0x28, 0xc2, 0xfa, 0x3e, 0xc0, 0x91, 0x56, 0x3d,
  0xc2, 0x90, 0x18, 0x3e, 0xb8, 0x8a, 0xd1, 0x3e, 0x9d, 0x21, 0xaf, 0x3e,
  0xa4, 0x28, 0x63, 0xbd, 0xda, 0x22, 0xe9, 0x3d, 0xb2, 0xd2, 0xf3, 0xbd,
  0xaa, 0xf2, 0x0e, 0xbd, 0x06, 0x8b, 0x76, 0xbe, 0x58, 0x98, 0xaa, 0x3d,
  0x02, 0x11, 0x05, 0xbe, 0xa1, 0x17, 0x88, 0x3e, 0xed, 0x65, 0x3e, 0x3e,
  0xb6, 0x25, 0x0a, 0x3d, 0x30, 0xdc, 0x89, 0x3e, 0x29, 0xe8, 0x9a, 0xbe,
  0xe1, 0xc9, 0xb1, 0x3e, 0x8f, 0xe0, 0x73, 0xbe, 0x94, 0x1b, 0xdf, 0x3d,
  0xca, 0x96, 0x1a, 0x3e, 0x14, 0x57, 0xcc, 0xbe, 0xd6, 0xfb, 0xad, 0x3d,
  0x06, 0xe5, 0xec, 0x3d, 0x24, 0x12, 0xf9, 0x3e, 0xf8, 0xe4, 0x07, 0x3d,
  0x1d, 0x09, 0x64, 0xbe, 0x84, 0xc5, 0x3d, 0x3e, 0x80, 0xc3, 0xd8, 0x3d,
  0x38, 0x65, 0xdb, 0x3e, 0x78, 0xba, 0x0f, 0xbd, 0x9d, 0x83, 0x73, 0x3d,
  0x9c, 0x34, 0x14, 0xbe, 0x07, 0x5c, 0x6e, 0xbd, 0xfc, 0xe2, 0x28, 0x3e,
  0x74, 0x00, 0xe7, 0xbe, 0xc6, 0x0a, 0x6c, 0x3e, 0x7d, 0xcf, 0x3c, 0xbe,
  0x84, 0xee, 0xbb, 0x3b, 0xd1, 0x46, 0xb5, 0x3e, 0xbb, 0x45, 0x79, 0x3e,
  0xb4, 0x4e, 0x2e, 0x3e, 0x3b, 0xf6, 0x13, 0xbf, 0x5b, 0x38, 0x7d, 0x3e,
  0x83, 0x18, 0x35, 0x3e, 0x53, 0x72, 0x0a, 0x3c, 0xf3, 0x89, 0x9b, 0x3e,
  0x3c, 0x34, 0xa5, 0x3e, 0xe3, 0x85, 0x2f, 0xbd, 0x93, 0xca, 0x1e, 0xbd,
  0x19, 0xce, 0xb6, 0xbd, 0x6e, 0xce, 0xff, 0xff, 0x10, 0x00, 0x00, 0x00,
  0x05, 0x00, 0x00, 0x00, 0x14, 0x00, 0x00, 0x00, 0x38, 0x00, 0x00, 0x00,
  0x02, 0x00, 0x00, 0x00, 0x02, 0x00, 0x00, 0x00, 0x48, 0x00, 0x00, 0x00,
  0x20, 0x00, 0x00, 0x00, 0x73, 0x65, 0x71, 0x75, 0x65, 0x6e, 0x74, 0x69,
  0x61, 0x6c, 0x5f, 0x31, 0x2f, 0x64, 0x65, 0x6e, 0x73, 0x65, 0x5f, 0x44,
  0x65, 0x6e, 0x73, 0x65, 0x32, 0x2f, 0x4d, 0x61, 0x74, 0x4d, 0x75, 0x6c,
  0x00, 0x00, 0x00, 0x00, 0xe8, 0xcd, 0xff, 0xff, 0xee, 0xcf, 0xff, 0xff,
  0x04, 0x00, 0x00, 0x00, 0x40, 0x2f, 0x00, 0x00, 0x9e, 0xec, 0x58, 0x3e,
  0x5e, 0x2b, 0x25, 0xbe, 0xa7, 0x1e, 0x14, 0x3c, 0x17, 0x69, 0x19, 0x3d,
  0x61, 0x61, 0x29, 0x3d, 0xb2, 0xc1, 0xe8, 0x3d, 0xa8, 0x3b, 0xb8, 0x3d,
  0x79, 0xf7, 0x75, 0xbd, 0x51, 0xee, 0x3e, 0x3d, 0x19, 0x15, 0x26, 0xbe,
  0x1b, 0x57, 0x2a, 0xbe, 0x81, 0xbd, 0x46, 0xbd, 0xea, 0xef, 0x00, 0x3e,
  0xeb, 0x09, 0x0f, 0x3d, 0xd7, 0xae, 0x01, 0xbe, 0x6d, 0x47, 0x24, 0x3e,
  0x81, 0x87, 0xc2, 0xbd, 0xe5, 0x17, 0x22, 0x3e, 0x4e, 0xde, 0x35, 0x3e,
  0xec, 0x9b, 0xbc, 0x3c, 0xa8, 0xd2, 0xa9, 0xbc, 0xd0, 0x15, 0x7c, 0x3e,
  0xb6, 0x87, 0x02, 0x3e, 0x6a, 0x45, 0xa5, 0x3d, 0x56, 0x9e, 0x25, 0x3d,
  0x53, 0x9e, 0xdf, 0x3d, 0x0b, 0xbd, 0x14, 0xbb, 0x1f, 0xae, 0x52, 0x3e,
  0xf7, 0x49, 0x62, 0xbe, 0x98, 0x3b, 0x0a, 0x3e, 0xeb, 0xaa, 0x98, 0xbd,
  0x14, 0x9c, 0x01, 0xbe, 0x94, 0xbb, 0x4d, 0xbc, 0x05, 0x94, 0x80, 0xbd,
  0x99, 0x7c, 0x63, 0x3e, 0xdf, 0x99, 0x3b, 0xbd, 0xa8, 0x5c, 0x64, 0xbe,
  0x68, 0x9e, 0xa0, 0x3d, 0xd1, 0x89, 0x3b, 0xbd, 0xf7, 0x73, 0x82, 0x3e,
  0x3f, 0x05, 0x72, 0x3d, 0x3f, 0xf7, 0xc6, 0xbd, 0xf9, 0xe3, 0xa8, 0xbd,
  0x86, 0xe6, 0xd3, 0xbc, 0xa9, 0xf9, 0x8a, 0x3e, 0x1a, 0x45, 0xae, 0xbe,
  0xcf, 0x4f, 0x95, 0x3d, 0xc2, 0x00, 0x26, 0x3d, 0x12, 0x2a, 0x2f, 0x3b,
  0xa2, 0x37, 0x92, 0xbe, 0x5a, 0x8e, 0x13, 0xbe, 0x2b, 0xeb, 0xca, 0xbd,
  0x1e, 0xfa, 0x2a, 0xbc, 0xa3, 0xf1, 0xce, 0xbd, 0x5f, 0x10, 0x83, 0xbe,
  0xc3, 0x9d, 0x1b, 0xbd, 0xa5, 0xe0, 0x70, 0x3e, 0x3b, 0x33, 0xa0, 0xbd,
  0x11, 0x81, 0x6b, 0x3d, 0x5a, 0xc6, 0x38, 0x3e, 0x4c, 0x84, 0x49, 0x3e,
  0xe4, 0x98, 0xd1, 0x3d, 0xe7, 0x97, 0x2e, 0x3e, 0x67, 0x7b, 0x5b, 0xbd,
  0xec, 0xa9, 0x0e, 0xbe, 0x2e, 0x47, 0xe8, 0x3d, 0xd6, 0xf2, 0x14, 0x3e,
  0x01, 0x2d, 0x05, 0xbd, 0x29, 0x49, 0x65, 0x3e, 0xad, 0xe0, 0x92, 0xbd,
  0x37, 0x8a, 0xb5, 0x3d, 0x4b, 0xa1, 0x80, 0xbc, 0xe8, 0x1e, 0xac, 0x3d,
  0x16, 0xaf, 0xd5, 0xbc, 0x60, 0x05, 0x45, 0x3e, 0x88, 0xc5, 0xc7, 0xbd,
  0x11, 0xa6, 0xd1, 0x3d, 0xf6, 0xeb, 0x00, 0x3d, 0xef, 0x02, 0xbf, 0x3d,
  0x2c, 0xfd, 0xb5, 0x3d, 0x03, 0xb0, 0x30, 0x3e, 0xdf, 0xd3, 0xdc, 0xbd,
  0x02, 0xb5, 0x66, 0xbd, 0x0b, 0xc0, 0xfc, 0xbd, 0x42, 0x55, 0x0d, 0xbd,
  0xa1, 0x3a, 0x0f, 0x3e, 0x8a, 0x08, 0xbf, 0x3c, 0x3e, 0xf6, 0x80, 0xbd,
  0xda, 0xef, 0x31, 0xbd, 0x4b, 0xc9, 0x42, 0xbe, 0x12, 0xbf, 0x3e, 0xba,
  0xc2, 0xcb, 0x2e, 0xbc, 0x23, 0xcc, 0xa1, 0xbc, 0x54, 0x91, 0x3c, 0xbe,
  0xa1, 0xc8, 0x8e, 0x3d, 0x5c, 0x9f, 0x19, 0x3e, 0x91, 0x7d, 0x96, 0x3d,
  0x6f, 0x0e, 0x7c, 0x3e, 0xaf, 0xac, 0x93, 0xbd, 0x98, 0x52, 0xe0, 0xbd,
  0x6d, 0xa9, 0x0a, 0xbd, 0x15, 0x7a, 0xfe, 0xbc, 0x94, 0x37, 0x5e, 0xbe,
  0x4c, 0x9e, 0xec, 0x3c, 0xc4, 0xb5, 0x28, 0xbe, 0x4a, 0x90, 0x46, 0xbe,
  0x45, 0x0b, 0xb0, 0xbd, 0xe1, 0x42, 0x1d, 0xbe, 0x9d, 0xd3, 0x26, 0x3e,
  0x1d, 0x88, 0x6d, 0x3e, 0x9e, 0x02, 0x3c, 0x3d, 0x13, 0x8c, 0xcf, 0x3d,
  0xf6, 0x92, 0xf0, 0xbd, 0x8d, 0x29, 0x6f, 0xbd, 0x3e, 0x4c, 0x4b, 0x3c,
  0xce, 0xa0, 0xc1, 0xbc, 0x0c, 0xe4, 0x57, 0x3d, 0xab, 0x58, 0x12, 0x3c,
  0xce, 0xa1, 0xe9, 0x3c, 0xc9, 0xcc, 0xa7, 0x3d, 0x9d, 0x2f, 0x32, 0x3d,
  0x99, 0x2b, 0x09, 0x3e, 0xd8, 0x37, 0x69, 0xbe, 0xc6, 0xeb, 0x17, 0xbd,
  0x0d, 0x95, 0xe4, 0xbd, 0x83, 0x51, 0xa0, 0x3c, 0xbf, 0xc5, 0x4d, 0xbc,
  0xe2, 0xb5, 0xad, 0x3d, 0x99, 0xd0, 0x06, 0x3e, 0x0e, 0xc0, 0x36, 0x3b,
  0x58, 0xa0, 0x08, 0xbd, 0xbd, 0xe1, 0x2a, 0x3a, 0x70, 0xec, 0xb1, 0xbc,
  0xcf, 0x13, 0xcd, 0x3d, 0xaf, 0x52, 0x52, 0x3e, 0x7a, 0x40, 0xe5, 0xbb,
  0x1d, 0x15, 0xae, 0x3d, 0xf5, 0x53, 0x02, 0x3e, 0xb4, 0x79, 0xc2, 0x3d,
  0x80, 0x28, 0x19, 0xbe, 0xd8, 0x72, 0xa8, 0xbd, 0xbf, 0x43, 0xe1, 0xbd,
  0xea, 0x72, 0x4f, 0x3e, 0x09, 0x4f, 0x93, 0xbd, 0x97, 0x61, 0x0c, 0x3e,
  0x90, 0x4a, 0x1d, 0x3d, 0x6d, 0x5b, 0xe2, 0x3c, 0x94, 0x61, 0xdd, 0x3d,
  0x8d, 0x7e, 0x2a, 0x3d, 0xba, 0x4c, 0x28, 0x3d, 0x83, 0xaf, 0x5f, 0x3e,
  0xb4, 0x2c, 0x3c, 0xbd, 0x84, 0x13, 0x1a, 0xbe, 0x47, 0x32, 0xc9, 0xbd,
  0x27, 0x99, 0xbc, 0x3d, 0x92, 0x4d, 0x01, 0xbe, 0x28, 0x66, 0xb9, 0xbc,
  0xd6, 0xa5, 0x49, 0xbe, 0x2a, 0x0f, 0x15, 0x3e, 0xe5, 0x99, 0x31, 0x3d,
  0x84, 0x10, 0x7e, 0x3d, 0x91, 0x5b, 0x87, 0xbd, 0x25, 0xa4, 0x79, 0x3e,
  0x89, 0x61, 0x15, 0x3d, 0x21, 0x2a, 0x12, 0xbd, 0x05, 0x77, 0x96, 0x3c,
  0x58, 0xec, 0xcc, 0xbd, 0xb1, 0x5c, 0x35, 0x3d, 0x9c, 0x51, 0x3e, 0x3d,
  0xd1, 0x1c, 0x47, 0xbd, 0x4f, 0x73, 0xa1, 0x3e, 0x5e, 0xd0, 0xeb, 0x3d,
  0xb1, 0x53, 0x97, 0x3d, 0xaf, 0xd6, 0xa0, 0xbc, 0x19, 0x8d, 0x4c, 0x3d,
  0x0e, 0x6f, 0x5b, 0xbc, 0xc5, 0x8f, 0x0f, 0xbe, 0x04, 0xdd, 0x29, 0xbd,
  0x62, 0xd1, 0x87, 0x3e, 0x17, 0x53, 0x30, 0xbd, 0x9b, 0x04, 0x58, 0x3d,
  0x4c, 0x6a, 0x1a, 0x3e, 0xd8, 0x5b, 0x2e, 0x3e, 0x10, 0xf9, 0xee, 0x3d,
  0x67, 0x5d, 0x03, 0xbe, 0x13, 0xcb, 0x14, 0x3e, 0x42, 0x46, 0xa1, 0xbd,
  0x24, 0x24, 0x3e, 0xbe, 0xa6, 0x4b, 0xef, 0x3c, 0x19, 0x65, 0x37, 0x3e,
  0xae, 0x6f, 0x52, 0xbc, 0xe4, 0xd8, 0x82, 0xbd, 0x4a, 0x6e, 0x2d, 0xbe,
  0x1b, 0x31, 0x07, 0xbc, 0xc4, 0xa7, 0x3a, 0x3e, 0x18, 0x8f, 0xa6, 0xbd,
  0xd1, 0x48, 0xdb, 0x3c, 0xaf, 0xce, 0xb5, 0x3d, 0x86, 0x3a, 0x4d, 0xbd,
  0xbf, 0xa3, 0x8c, 0xbd, 0x65, 0xc4, 0x8e, 0xbd, 0xf8, 0xf4, 0x06, 0x3e,
  0x6d, 0x56, 0x38, 0xbe, 0xf5, 0xb9, 0x42, 0x3e, 0xb8, 0xd6, 0x9c, 0xbd,
  0x10, 0xe4, 0x2d, 0xbd, 0x93, 0x5b, 0xec, 0xbd, 0xab, 0x38, 0x6d, 0x3a,
  0x06, 0x50, 0xbc, 0xbd, 0x1c, 0x25, 0x2f, 0x3c, 0x9d, 0x9b, 0xa7, 0xbd,
  0x2f, 0x26, 0x2f, 0x3e, 0x58, 0x20, 0x2f, 0x3e, 0x54, 0x74, 0xae, 0xbc,
  0xec, 0x45, 0x08, 0x3e, 0x5f, 0x95, 0x3e, 0x3e, 0x2c, 0xdd, 0x89, 0xbd,
  0x47, 0xcb, 0xfb, 0xbd, 0x14, 0x9e, 0x77, 0xbe, 0xa8, 0x53, 0x18, 0xbd,
  0xde, 0x8d, 0x5c, 0xbe, 0x7c, 0xcf, 0x71, 0xbb, 0xc5, 0x36, 0x51, 0xbe,
  0xa6, 0xa7, 0x67, 0x3e, 0x38, 0x21, 0x36, 0xbd, 0x23, 0x82, 0x12, 0xbe,
  0x78, 0x3a, 0xe6, 0xbc, 0x5d, 0x36, 0xea, 0x3d, 0x87, 0x3b, 0xec, 0x3d,
  0xe3, 0x29, 0x46, 0x3c, 0x35, 0x0e, 0x6d, 0x3c, 0x6b, 0xc9, 0x11, 0xbe,
  0xa8, 0xab, 0x70, 0xbe, 0x9e, 0x00, 0x1e, 0x3d, 0x87, 0xf1, 0xfe, 0xbd,
  0xfa, 0x40, 0x25, 0xbe, 0xe5, 0x78, 0xf6, 0xbb, 0x0c, 0xfc, 0xad, 0xbd,
  0x14, 0x2d, 0x90, 0xbd, 0xc7, 0xfc, 0x25, 0x3e, 0x13, 0x61, 0x8e, 0xbd,
  0xb5, 0x60, 0x33, 0x3e, 0x6e, 0x8e, 0x46, 0x3e, 0x11, 0xd7, 0x86, 0x3b,
  0xb7, 0x76, 0x3e, 0xbc, 0x62, 0xb4, 0x2d, 0xbe, 0xcf, 0x3b, 0x50, 0x3c,
  0x1a, 0x4a, 0x3d, 0x3d, 0xe4, 0x27, 0xd3, 0xbd, 0xd0, 0x1f, 0xa2, 0xb9,
  0x8e, 0x01, 0xa1, 0xbc, 0x22, 0x14, 0x97, 0x3d, 0x98, 0xe1, 0xfb, 0xbd,
  0xe2, 0x9d, 0x4d, 0xbc, 0x0e, 0xac, 0xe8, 0x3c, 0x2e, 0xcb, 0x89, 0xbd,
  0xea, 0x88, 0x85, 0xbd, 0x74, 0x3d, 0xa4, 0xbc, 0xec, 0xa1, 0x8b, 0x3d,
  0x9a, 0xb7, 0xda, 0x3c, 0x5c, 0x4c, 0x0c, 0x3e, 0x51, 0x74, 0xff, 0xbd,
  0x21, 0xb2, 0x43, 0xbe, 0x35, 0xab, 0xb0, 0xbd, 0x49, 0x15, 0xc1, 0x3d,
  0x35, 0x40, 0x0e, 0xbd, 0x89, 0x93, 0x58, 0x3e, 0x0c, 0x0c, 0xfe, 0xbb,
  0x55, 0x2b, 0xa5, 0x3d, 0x07, 0x01, 0x8a, 0xbd, 0x97, 0x0d, 0xa8, 0x3d,
  0xce, 0x67, 0xc5, 0x3d, 0x6a, 0x26, 0x48, 0xbe, 0xdc, 0xf4, 0x3e, 0xbe,
  0x21, 0xd3, 0x04, 0xbd, 0x02, 0x39, 0x33, 0x3e, 0xf1, 0x83, 0x41, 0xbd,
  0x2f, 0xbf, 0xf0, 0x3d, 0xc9, 0xc8, 0x48, 0xbe, 0xb1, 0xa2, 0x53, 0x3d,
  0xd3, 0xa4, 0x8c, 0x3d, 0x9c, 0x78, 0x02, 0x3e, 0xb3, 0x13, 0x74, 0xbd,
  0xbb, 0x38, 0x12, 0xbe, 0x52, 0x0e, 0x43, 0x3d, 0x25, 0x0e, 0xf8, 0xbc,
  0x3c, 0xb5, 0xc6, 0xbd, 0x1b, 0x6f, 0xc4, 0xbd, 0xc9, 0x1f, 0xdc, 0x3c,
  0x33, 0x24, 0xf9, 0xbc, 0xa7, 0xb7, 0xa4, 0xbd, 0xda, 0xc5, 0xb6, 0x3d,
  0x5c, 0x2d, 0xde, 0xbd, 0x90, 0xa8, 0x07, 0xbd, 0x7f, 0x23, 0x07, 0xbe,
  0x6c, 0xa8, 0xab, 0x3d, 0x33, 0x43, 0xcf, 0xbc, 0x1e, 0x9c, 0x0d, 0xbe,
  0x85, 0x1d, 0x63, 0xbe, 0x26, 0x44, 0xdf, 0xbc, 0x28, 0xc7, 0x78, 0xbd,
  0xb2, 0xda, 0xe7, 0xbd, 0x21, 0xa4, 0xfd, 0xbd, 0x93, 0xbd, 0x47, 0xbd,
  0x63, 0xdc, 0x3d, 0x3e, 0x0c, 0x85, 0xe4, 0x3d, 0xbb, 0x0c, 0x61, 0xbe,
  0x82, 0xab, 0xb8, 0x3d, 0xc3, 0xe4, 0xf3, 0x3c, 0x02, 0x40, 0x0e, 0x3d,
  0xca, 0x7f, 0x8d, 0x3c, 0x91, 0x1f, 0xc7, 0xbd, 0xee, 0xad, 0x4d, 0xbe,
  0xb2, 0x8d, 0x86, 0xbd, 0x2f, 0xf7, 0x8d, 0x3d, 0x88, 0xf2, 0x43, 0xbe,
  0x6a, 0xa8, 0x15, 0x3d, 0x7b, 0xc6, 0x3f, 0x3e, 0xbc, 0xd8, 0x73, 0x3e,
  0xe7, 0x84, 0xae, 0x3c, 0xc6, 0x0d, 0xd0, 0x3c, 0x45, 0x93, 0xa8, 0xbd,
  0x1a, 0x88, 0xda, 0xbd, 0x7a, 0x69, 0x67, 0xbd, 0xd9, 0xcc, 0x38, 0xbc,
  0xc8, 0x26, 0x62, 0x3d, 0xcb, 0x35, 0x39, 0x3e, 0x17, 0x73, 0x6e, 0x3d,
  0xd2, 0x46, 0x26, 0x3e, 0xf1, 0xcd, 0x36, 0x3e, 0xea, 0xf1, 0x65, 0xbd,
  0x03, 0xb4, 0x2f, 0x3d, 0xac, 0xd8, 0xf1, 0xbc, 0x5e, 0x07, 0x9d, 0xbe,
  0x91, 0x82, 0xa4, 0x3d, 0x44, 0x2e, 0xd9, 0x3d, 0x47, 0x55, 0x6c, 0x3e,
  0x23, 0xf4, 0xb3, 0x3c, 0x0a, 0x5b, 0x79, 0x3c, 0x91, 0x4f, 0x5c, 0x3e,
  0x07, 0x86, 0xe9, 0xbc, 0xb8, 0xa5, 0xfc, 0xbc, 0xcb, 0xc0, 0x2f, 0x3e,
  0x8e, 0xff, 0x21, 0xbd, 0x45, 0x2c, 0x0b, 0xbe, 0x01, 0xce, 0xae, 0xbd,
  0x02, 0x37, 0x64, 0xbe, 0x8a, 0xfd, 0xde, 0x3b, 0x0b, 0x1c, 0x68, 0xbd,
  0x5b, 0xf6, 0x81, 0x3e, 0xa2, 0x16, 0x09, 0xbe, 0x63, 0xbc, 0x5a, 0xbb,
  0xd2, 0x3c, 0xff, 0xbd, 0x62, 0x9c, 0xb2, 0x3d, 0x68, 0xc3, 0xa2, 0xbc,
  0xa6, 0x5f, 0xd3, 0xbc, 0xfe, 0xa4, 0x86, 0x3d, 0x53, 0xe4, 0x85, 0xbe,
  0xa8, 0xb7, 0x23, 0xbe, 0x46, 0x5a, 0xde, 0x3d, 0x4d, 0xd7, 0x86, 0xbb,
  0xfb, 0x1c, 0xaa, 0xbd, 0xf8, 0xfc, 0x69, 0xbd, 0xda, 0xb9, 0xaf, 0xbc,
  0x18, 0x6d, 0x43, 0x3d, 0xf5, 0x57, 0xd3, 0x3d, 0x52, 0x0c, 0x2a, 0xbe,
  0xb4, 0x6d, 0x5f, 0xbe, 0xce, 0x0a, 0xe5, 0xbd, 0x8c, 0x92, 0xb2, 0x3d,
  0x42, 0xe7, 0x90, 0x3c, 0x7c, 0x6d, 0x57, 0xbd, 0xad, 0x92, 0x9e, 0xbd,
  0xd4, 0xc9, 0xef, 0x3d, 0x13, 0x2a, 0xc3, 0x3d, 0x26, 0xcb, 0x1a, 0xbe,
  0x32, 0xe7, 0xf0, 0xbd, 0x63, 0x30, 0x74, 0xbc, 0x57, 0xa4, 0x19, 0xbe,
  0x87, 0x8f, 0x9c, 0xbe, 0x53, 0xa3, 0x45, 0x3d, 0x08, 0x64, 0x23, 0xbe,
  0x42, 0x2b, 0x55, 0xbe, 0x19, 0xdd, 0x0a, 0xbe, 0xaa, 0xe3, 0x16, 0x3d,
  0x48, 0xff, 0x69, 0xbe, 0x31, 0x7c, 0x86, 0xbe, 0xf3, 0xaa, 0x42, 0x3d,
  0x8b, 0x2c, 0x0b, 0x3c, 0x96, 0x51, 0x8d, 0xbd, 0xd6, 0xba, 0x0b, 0x3d,
  0xe2, 0xfa, 0x34, 0xbd, 0x9a, 0xb3, 0x62, 0xbd, 0xbd, 0xfc, 0x59, 0xbe,
  0x9a, 0xa2, 0x35, 0x3e, 0x61, 0xfa, 0x94, 0xba, 0x05, 0x0a, 0x00, 0x3e,
  0x83, 0xec, 0x16, 0xbe, 0xdc, 0xc1, 0x0d, 0xbe, 0x59, 0x6f, 0xca, 0xbd,
  0x1a, 0xd7, 0x02, 0xbd, 0x05, 0xe3, 0x5d, 0x3e, 0xa8, 0x96, 0xda, 0xbd,
  0xe8, 0x41, 0x1d, 0x3e, 0x18, 0x88, 0x96, 0x3d, 0x11, 0xca, 0x86, 0x3c,
  0xf8, 0x11, 0x4e, 0x3d, 0xfd, 0x25, 0x54, 0x3e, 0x0e, 0x3f, 0xf6, 0x3c,
  0xd8, 0xdb, 0x9c, 0xbc, 0x38, 0xce, 0x15, 0xbe, 0x4f, 0xc4, 0x27, 0x3e,
  0xf3, 0xb4, 0x1e, 0x3e, 0xe2, 0xc7, 0x0a, 0x3e, 0xf5, 0x3d, 0xe7, 0xbc,
  0x48, 0xad, 0x09, 0x3e, 0xce, 0xb5, 0xb6, 0x3e, 0xa9, 0xf6, 0x01, 0xbd,
  0x04, 0x29, 0xc0, 0xbd, 0x0d, 0xfa, 0xd5, 0x3d, 0x81, 0x83, 0x54, 0x3e,
  0x0c, 0x30, 0x00, 0xbd, 0x00, 0x65, 0x0b, 0x3e, 0x2b, 0x0e, 0xce, 0xbd,
  0xcc, 0x61, 0x00, 0x3e, 0x2d, 0xa6, 0x3d, 0x3c, 0x91, 0x33, 0xbf, 0x3d,
  0x64, 0x95, 0xfd, 0x3c, 0xdb, 0x2e, 0xd3, 0xbd, 0x6b, 0x60, 0xa3, 0x3d,
  0x37, 0x07, 0xc9, 0x3c, 0x2c, 0xce, 0x6f, 0x3e, 0xaf, 0x2f, 0xa5, 0xbd,
  0x6f, 0x8c, 0x8b, 0x3b, 0x60, 0xbf, 0x32, 0x3d, 0x90, 0x25, 0xb4, 0xbd,
  0xea, 0x79, 0x31, 0x3e, 0x14, 0x4d, 0xee, 0x3d, 0xbe, 0xa6, 0x39, 0xbe,
  0xe9, 0x22, 0xba, 0xbc, 0x1f, 0x62, 0x41, 0x3e, 0x92, 0x51, 0xe5, 0xbd,
  0x59, 0xb2, 0x59, 0x3e, 0x7c, 0xf9, 0xff, 0xbd, 0x99, 0x95, 0xdc, 0xbd,
  0xf5, 0xad, 0x17, 0x3e, 0x15, 0xae, 0xd3, 0xbd, 0x0f, 0x3c, 0xa3, 0x3d,
  0xa5, 0xb4, 0x87, 0x3d, 0xe3, 0x44, 0x7e, 0x3e, 0x9d, 0x0c, 0xd5, 0xbd,
  0xd7, 0x17, 0xe5, 0x3d, 0xac, 0x92, 0x25, 0xbd, 0x2c, 0x19, 0x39, 0xbd,
  0x09, 0xfe, 0x1c, 0x3c, 0x13, 0x4b, 0x04, 0xbd, 0x88, 0x49, 0x64, 0xbd,
  0xd1, 0x9a, 0x3f, 0x3d, 0x7e, 0x30, 0x80, 0x3e, 0x1b, 0x9a, 0x0a, 0x3e,
  0x17, 0x43, 0x85, 0x3e, 0xe2, 0x53, 0x11, 0x3e, 0x16, 0x53, 0x64, 0x3e,
  0xa7, 0xe4, 0xcd, 0x3d, 0xe8, 0x60, 0x1f, 0xbe, 0x3f, 0xae, 0x2a, 0xbe,
  0xc9, 0x72, 0xc0, 0xbd, 0x0d, 0xe8, 0x89, 0xbc, 0x2c, 0x42, 0xdd, 0x3d,
  0xe2, 0xf7, 0x97, 0xbb, 0xc8, 0xc7, 0xdc, 0x3d, 0xea, 0x0f, 0x8a, 0xbd,
  0x28, 0x45, 0xd1, 0x3d, 0x42, 0xf7, 0x5c, 0xbe, 0x22, 0xcc, 0xab, 0x3d,
  0x6e, 0xd4, 0x0d, 0x3e, 0xdb, 0xbf, 0x4d, 0x3e, 0xea, 0xe1, 0x88, 0x3d,
  0xe0, 0x93, 0x42, 0x3d, 0x4b, 0x6d, 0x4d, 0x3d, 0x7f, 0x1b, 0x13, 0xbd,
  0x76, 0x5c, 0xdf, 0xbc, 0x81, 0x40, 0x18, 0xbd, 0x6a, 0x4c, 0x09, 0x3e,
  0x1f, 0xf5, 0x12, 0xbe, 0x25, 0x45, 0x74, 0xbc, 0x7a, 0xed, 0x3f, 0xbb,
  0xf7, 0x70, 0x14, 0xbe, 0x34, 0xe4, 0xcc, 0x3d, 0x4e, 0x88, 0xc5, 0x3d,
  0xb7, 0x7f, 0x10, 0x3e, 0xc4, 0x04, 0x6c, 0x3c, 0xc4, 0x77, 0x67, 0xbd,
  0xf3, 0x6c, 0x5b, 0x3d, 0x28, 0xe9, 0xcf, 0xbd, 0xab, 0x10, 0x41, 0xbe,
  0xd6, 0x00, 0xc8, 0x3c, 0x6d, 0x50, 0x94, 0xbe, 0x31, 0xb2, 0xe6, 0xbd,
  0xd1, 0x02, 0xd8, 0x3d, 0xe3, 0x59, 0x22, 0xbe, 0xff, 0xc5, 0x11, 0x3e,
  0xaa, 0xc7, 0xae, 0xbc, 0x98, 0x85, 0xb6, 0x3c, 0xa9, 0x15, 0x06, 0xbe,
  0x11, 0x82, 0xf5, 0x3d, 0xb8, 0xc5, 0x62, 0x3d, 0x27, 0xd7, 0xeb, 0x3b,
  0x95, 0x6b, 0x01, 0xbd, 0xc6, 0xc4, 0x35, 0x3a, 0xe5, 0x23, 0xdf, 0xbc,
  0x75, 0xe9, 0x9e, 0xbb, 0x19, 0xdd, 0x9a, 0xbd, 0xc8, 0xd5, 0x10, 0x3d,
  0x1f, 0x60, 0xf0, 0xbb, 0xab, 0x5d, 0x6d, 0x3a, 0x66, 0x5e, 0xd3, 0xbd,
  0x64, 0xb7, 0x04, 0x3e, 0x29, 0xbb, 0x42, 0x3d, 0x60, 0x9a, 0x09, 0xbd,
  0x38, 0x6c, 0x45, 0xbd, 0x66, 0x95, 0xd8, 0x3d, 0x2a, 0x47, 0xeb, 0x3d,
  0x23, 0x35, 0x12, 0xbe, 0x0c, 0xa3, 0xf9, 0xbd, 0x6c, 0x1f, 0xb1, 0x3d,
  0x62, 0xd1, 0x06, 0x3e, 0xb6, 0xfa, 0x5c, 0xbe, 0x56, 0xa1, 0x4a, 0xbe,
  0x84, 0x60, 0xea, 0xbc, 0x7a, 0xa4, 0x71, 0xbd, 0x5a, 0xdb, 0x0c, 0x3d,
  0x60, 0xaf, 0x38, 0xbe, 0xcc, 0xfd, 0xdf, 0xbc, 0x2c, 0xd1, 0x19, 0xbe,
  0x86, 0xfa, 0xa5, 0xbd, 0xe2, 0xed, 0x48, 0x3d, 0xef, 0x44, 0x1a, 0x3d,
  0x90, 0xf8, 0xe3, 0xbb, 0xb4, 0x4d, 0xb0, 0xbc, 0x2d, 0x0d, 0x9b, 0x3d,
  0xb2, 0xc5, 0x24, 0xbe, 0x84, 0x30, 0x8f, 0xbd, 0x60, 0x88, 0xbe, 0x3d,
  0xd9, 0x93, 0x3b, 0xbd, 0xef, 0x2c, 0xfa, 0x3d, 0x28, 0xfa, 0xd8, 0xbd,
  0x19, 0xb7, 0xd8, 0xbd, 0xbc, 0x5a, 0xfb, 0x3e, 0x51, 0xc7, 0x12, 0xbe,
  0x88, 0xe3, 0x78, 0xbc, 0x50, 0xc1, 0xa0, 0x3d, 0x90, 0xf8, 0x06, 0x3e,
  0x72, 0x7f, 0xea, 0xbd, 0x5d, 0x7d, 0xa4, 0xbe, 0x51, 0xc2, 0x49, 0xbd,
  0xdf, 0x01, 0x43, 0xbe, 0xc5, 0x1c, 0xa2, 0xbe, 0x4d, 0x31, 0x17, 0xbe,
  0xc9, 0x5b, 0x1e, 0x3e, 0x87, 0xa3, 0xfa, 0x3d, 0x0a, 0xd7, 0xa0, 0xbc,
  0xaf, 0x7d, 0x3b, 0xbe, 0x61, 0x4c, 0x1c, 0x3d, 0x57, 0xe8, 0xe0, 0x3d,
  0x9e, 0x0f, 0xd3, 0xbc, 0x03, 0xf8, 0x40, 0xbe, 0x08, 0xd4, 0x27, 0xba,
  0x38, 0xc8, 0xfc, 0x3d, 0xe4, 0xcf, 0x0f, 0xbe, 0xc9, 0x30, 0x25, 0x3e,
  0x8d, 0xac, 0x2f, 0xbc, 0x62, 0x28, 0xd2, 0x3d, 0xb4, 0xe4, 0x96, 0xbd,
  0x17, 0xbe, 0xf6, 0xbd, 0x5d, 0x09, 0xa8, 0xbc, 0x8c, 0xbd, 0x72, 0x3e,
  0xb9, 0x2b, 0xa4, 0x3b, 0x68, 0x15, 0xad, 0xbd, 0x39, 0x9e, 0xa8, 0x3a,
  0x8b, 0x23, 0xde, 0xbd, 0x83, 0x30, 0x11, 0x3e, 0x68, 0x4c, 0xf5, 0x3d,
  0x65, 0x3f, 0x3b, 0x3c, 0x55, 0x81, 0xdd, 0x3d, 0xcf, 0xbd, 0x29, 0x3e,
  0x95, 0x6d, 0x4c, 0xbe, 0x2b, 0x5c, 0x9f, 0xbd, 0xb9, 0xde, 0xaa, 0x3a,
  0x18, 0x6c, 0x8b, 0x3e, 0x2b, 0xce, 0x0c, 0xbe, 0x18, 0xc6, 0x62, 0x3e,
  0xf7, 0x39, 0x07, 0x3c, 0x35, 0x27, 0xc5, 0x3d, 0xf2, 0x22, 0x27, 0xbd,
  0xa9, 0xc3, 0xfc, 0x3d, 0x45, 0xe3, 0x3d, 0xbc, 0x73, 0xfe, 0x93, 0xbd,
  0x3e, 0xbd, 0xa4, 0xbd, 0xef, 0xae, 0x17, 0x3e, 0x6c, 0x72, 0x91, 0xbd,
  0x37, 0x6c, 0x28, 0xbd, 0xab, 0xe4, 0x60, 0xbe, 0x33, 0x66, 0xcb, 0x3d,
  0x64, 0x15, 0x9c, 0xbd, 0x7d, 0x69, 0x24, 0xbe, 0x06, 0x33, 0x06, 0x3e,
  0x5f, 0x45, 0x9b, 0x3d, 0x79, 0x5c, 0x1e, 0xbc, 0xc8, 0xdb, 0x20, 0x3d,
  0x6d, 0x77, 0x7a, 0xbe, 0xc3, 0xc2, 0x25, 0xbb, 0xf1, 0xf6, 0xca, 0x3d,
  0x1c, 0xa9, 0x85, 0x3b, 0x65, 0x9e, 0x27, 0xbe, 0x06, 0xff, 0x24, 0xbe,
  0xb0, 0x28, 0xcf, 0x3d, 0xe8, 0x67, 0x91, 0xbe, 0x96, 0x64, 0xe3, 0xbb,
  0xe8, 0x72, 0xe4, 0xbd, 0x46, 0x45, 0x08, 0xbe, 0x2a, 0x3f, 0xa1, 0xbd,
  0xbd, 0x6e, 0xa9, 0xbd, 0xdc, 0x7c, 0x46, 0xbd, 0xa3, 0xdb, 0x08, 0xbe,
  0xde, 0xec, 0x67, 0x3e, 0x55, 0xf7, 0x23, 0xbe, 0xfd, 0xf5, 0x82, 0x3e,
  0x08, 0x4d, 0x5e, 0xbd, 0x2e, 0x27, 0x35, 0xbe, 0xfc, 0x32, 0xe1, 0x3d,
  0xd2, 0xcb, 0xae, 0xbc, 0x5c, 0xb9, 0x05, 0xbe, 0xa7, 0x19, 0xd7, 0xbd,
  0x59, 0x00, 0xda, 0xbd, 0x74, 0x05, 0x5e, 0x3e, 0x67, 0xfd, 0xa7, 0x3d,
  0x53, 0x62, 0x6e, 0xbd, 0xbc, 0x28, 0xed, 0xbc, 0x28, 0x7f, 0x55, 0xbd,
  0x70, 0xd5, 0x1f, 0xbe, 0x39, 0x9a, 0xc8, 0x3d, 0xb9, 0x6b, 0xed, 0x3d,
  0x5b, 0x5b, 0xc0, 0xbd, 0xcb, 0x52, 0xae, 0x3d, 0x73, 0x7c, 0x7a, 0x3e,
  0x0e, 0xd5, 0x68, 0x3e, 0x71, 0x68, 0x90, 0x3c, 0x51, 0x3e, 0x19, 0x3d,
  0x56, 0xce, 0x51, 0xbe, 0x3e, 0xa5, 0xa6, 0x3d, 0x4f, 0xba, 0x73, 0x3e,
  0xd9, 0x38, 0x8a, 0xbd, 0x74, 0x35, 0x17, 0x3c, 0x17, 0x87, 0x2f, 0x3c,
  0xcd, 0xe4, 0x32, 0xbe, 0x6d, 0x0c, 0xd4, 0x3d, 0xcf, 0xb7, 0x30, 0xbe,
  0x2b, 0x28, 0x03, 0xbe, 0x02, 0xcf, 0x44, 0x3d, 0x62, 0x11, 0x94, 0x3d,
  0xc3, 0x65, 0x7a, 0x3d, 0x17, 0xfe, 0xf0, 0x3d, 0x70, 0x9c, 0xa3, 0xbc,
  0xfc, 0xa2, 0x1a, 0xbe, 0xe0, 0x4d, 0x44, 0xbe, 0x35, 0x54, 0xd9, 0xba,
  0x92, 0x9b, 0xf2, 0xbd, 0x0c, 0x56, 0x79, 0xbd, 0x5e, 0xf1, 0xcd, 0x3d,
  0x2b, 0xfb, 0xe0, 0x3d, 0xd7, 0x61, 0xd9, 0x3d, 0x65, 0x02, 0x2c, 0x3d,
  0xdc, 0x55, 0x67, 0xbe, 0xff, 0x91, 0x7a, 0x3d, 0x4d, 0xa0, 0x22, 0xbe,
  0x45, 0x30, 0x51, 0xbd, 0xf2, 0x33, 0x99, 0xbd, 0x2f, 0xe9, 0x57, 0x3d,
  0x7d, 0x13, 0x9f, 0xbc, 0xab, 0xe3, 0x30, 0xbd, 0xf8, 0x12, 0x9e, 0xbd,
  0x84, 0xa2, 0x19, 0x3e, 0xf9, 0x93, 0x0b, 0xbc, 0x81, 0x06, 0x09, 0xbe,
  0xdc, 0xfa, 0xc4, 0xbd, 0xe2, 0xbc, 0x5b, 0xbe, 0x96, 0xe7, 0x45, 0x3d,
  0x1d, 0x7b, 0x74, 0x3c, 0xa2, 0xca, 0xf5, 0x3d, 0xd3, 0x45, 0x08, 0x3c,
  0x04, 0x2f, 0xc9, 0x3d, 0x6e, 0xcf, 0x5f, 0xbe, 0xb6, 0xa3, 0x54, 0xbc,
  0x44, 0xb7, 0x23, 0xbe, 0x5d, 0x06, 0x14, 0xbd, 0x5d, 0x2f, 0x02, 0xbd,
  0x37, 0x50, 0xbd, 0xbd, 0x71, 0x00, 0x4b, 0x3e, 0xb6, 0x92, 0x4d, 0xbe,
  0x09, 0xfa, 0xa2, 0x3d, 0x06, 0xa1, 0xd8, 0x3c, 0xa2, 0xb8, 0x27, 0xbd,
  0x02, 0x65, 0x28, 0xbe, 0x5c, 0xdd, 0xf1, 0xbd, 0x5f, 0x90, 0xaf, 0xbd,
  0xd4, 0xac, 0x08, 0x3e, 0x80, 0xb0, 0x55, 0x3d, 0x18, 0x4c, 0xd7, 0xbc,
  0x34, 0x15, 0x14, 0xbe, 0x6b, 0xe4, 0xa4, 0x3d, 0x4c, 0x65, 0xe2, 0xbd,
  0x00, 0x0b, 0x66, 0x3d, 0x5c, 0x0c, 0x0a, 0x3e, 0xc6, 0x23, 0x1c, 0xbe,
  0x52, 0x24, 0x55, 0x3e, 0x95, 0x98, 0xb3, 0x3e, 0x1a, 0x43, 0x0a, 0xbe,
  0xeb, 0xda, 0xa2, 0x3c, 0xef, 0x78, 0x0f, 0xbd, 0xce, 0x83, 0xdc, 0xbd,
  0x3d, 0x29, 0x7a, 0xbe, 0x44, 0x82, 0xd5, 0xbe, 0xdd, 0xec, 0x38, 0xbe,
  0x90, 0xc1, 0x33, 0xbe, 0x8d, 0x82, 0x6f, 0xbe, 0x19, 0x13, 0x13, 0x3e,
  0x1e, 0x4a, 0xa8, 0x3d, 0xba, 0x67, 0xd9, 0xbd, 0xe4, 0x5b, 0xb2, 0xbd,
  0x3d, 0x1b, 0x6c, 0xbd, 0x54, 0x53, 0xcb, 0x3d, 0xa6, 0x2f, 0x40, 0x3e,
  0xeb, 0x6f, 0xb1, 0x3c, 0x28, 0xfe, 0x3d, 0xbd, 0x69, 0x57, 0xd3, 0xbd,
  0x0b, 0x92, 0x9f, 0x3c, 0x3f, 0x1c, 0x83, 0x3e, 0x6a, 0x85, 0x2c, 0xbe,
  0x9e, 0x05, 0xd8, 0xbd, 0x1e, 0x75, 0x49, 0xbd, 0xfb, 0xd0, 0x85, 0xbc,
  0xb7, 0x09, 0xc0, 0x3c, 0xec, 0x85, 0xa8, 0x3d, 0xe0, 0xc3, 0xdd, 0x3c,
  0x1a, 0xe3, 0x8a, 0x3d, 0xbe, 0x44, 0xd7, 0x3c, 0x00, 0x43, 0x82, 0x3e,
  0xa5, 0xe4, 0x52, 0xbe, 0xda, 0x55, 0xb3, 0xbd, 0xbb, 0x2c, 0x8e, 0x3d,
  0xd2, 0xa0, 0x82, 0x3d, 0x5e, 0xff, 0xac, 0x3d, 0xb5, 0x53, 0xe4, 0xbd,
  0x1c, 0x68, 0xb1, 0xbd, 0xb3, 0x8b, 0x6e, 0xbd, 0x3b, 0x8b, 0xdc, 0xbd,
  0x6e, 0x72, 0x9e, 0x3d, 0x84, 0x3d, 0x83, 0xbd, 0xa1, 0x71, 0xc6, 0x3d,
  0x3e, 0x94, 0x1b, 0xbe, 0x81, 0x3d, 0x94, 0xbe, 0xbc, 0xab, 0x5d, 0x3e,
  0xff, 0x2c, 0xbc, 0x3d, 0x76, 0xbe, 0x8f, 0x3d, 0xda, 0x65, 0x3e, 0xbe,
  0xd0, 0x8a, 0xb4, 0xbd, 0x47, 0xef, 0xcb, 0xbb, 0xc0, 0x75, 0xd5, 0xbc,
  0x89, 0xc8, 0x41, 0xbd, 0x32, 0x00, 0xd0, 0x3d, 0xa1, 0x95, 0x7f, 0xbc,
  0x5f, 0x33, 0x2f, 0x3d, 0xd4, 0x60, 0x90, 0x3d, 0x86, 0xf7, 0x36, 0x3e,
  0xde, 0xe0, 0xc9, 0x3d, 0x22, 0xa4, 0x80, 0x3e, 0xae, 0x4f, 0x3b, 0x3e,
  0x20, 0x97, 0xb7, 0x3d, 0xb1, 0x86, 0x01, 0xbe, 0x52, 0xed, 0xb8, 0xbd,
  0x61, 0x44, 0x3b, 0x3d, 0x5a, 0x1a, 0x81, 0x3d, 0x44, 0x48, 0x67, 0x3e,
  0xc9, 0xd4, 0x6c, 0x3c, 0xfd, 0x5b, 0xa1, 0x3d, 0xf5, 0x0b, 0xbf, 0xbd,
  0xd8, 0x0d, 0x57, 0xbe, 0xf2, 0x7b, 0x87, 0xbd, 0x0a, 0x58, 0x3c, 0xbe,
  0x45, 0x7a, 0x06, 0xbe, 0x2e, 0xbb, 0x1f, 0xbd, 0x92, 0xbb, 0x82, 0xbc,
  0x9e, 0x15, 0xb0, 0xbd, 0xca, 0x11, 0x99, 0x3d, 0x95, 0x34, 0x51, 0x3a,
  0x17, 0x8a, 0x0a, 0x3d, 0x76, 0xc9, 0x52, 0xbe, 0x6b, 0x49, 0x16, 0xbd,
  0x6f, 0xd0, 0x00, 0xbe, 0xc3, 0xd7, 0x15, 0x3e, 0xe8, 0xf3, 0xef, 0x3d,
  0x81, 0x1a, 0xd0, 0xbc, 0x44, 0xd8, 0x37, 0x3e, 0x9f, 0x6f, 0x66, 0xbc,
  0xa0, 0x7a, 0xf6, 0x3d, 0x77, 0x1c, 0x88, 0x3d, 0xae, 0x62, 0xcc, 0xbd,
  0xc2, 0x63, 0x94, 0xbc, 0x29, 0x5c, 0xbe, 0x3d, 0xe8, 0x23, 0x21, 0xbe,
  0x7f, 0x1b, 0x39, 0xbe, 0xe7, 0x9b, 0xf1, 0xbc, 0x09, 0xf2, 0x53, 0x3e,
  0xd4, 0x01, 0x9a, 0x3c, 0xd0, 0xd9, 0xa7, 0xbd, 0x19, 0xd2, 0x91, 0xbd,
  0xf9, 0xca, 0xf9, 0x3c, 0x5d, 0xdf, 0xda, 0xbd, 0x0a, 0x3f, 0x00, 0x3d,
  0x1d, 0x8c, 0x28, 0xbe, 0x40, 0xa0, 0xf7, 0xbd, 0xa7, 0xd6, 0xa3, 0xbd,
  0x0c, 0x88, 0xa8, 0x3c, 0x41, 0xd5, 0x8f, 0xbc, 0xd7, 0xfa, 0x35, 0x3e,
  0xf3, 0xc5, 0x5d, 0x3c, 0x61, 0xb5, 0x62, 0xbd, 0x63, 0xba, 0x23, 0xbe,
  0x79, 0xb9, 0x65, 0x3c, 0xd8, 0x53, 0x09, 0xbc, 0x7d, 0x7a, 0x1c, 0x3d,
  0x14, 0x4d, 0x53, 0x3c, 0xa5, 0xc4, 0x60, 0xbe, 0x9e, 0x0a, 0x18, 0x3e,
  0xcb, 0xe1, 0x03, 0x3e, 0x8d, 0xcf, 0x20, 0xbc, 0xb5, 0x6b, 0x32, 0x3e,
  0x43, 0x78, 0xc5, 0xbd, 0xd5, 0xc5, 0x30, 0xbd, 0xd8, 0xca, 0xac, 0xbd,
  0x73, 0x35, 0x5d, 0x3e, 0x72, 0xaa, 0x4a, 0xbe, 0x78, 0x6c, 0x5d, 0x3c,
  0x5b, 0x72, 0xa8, 0x3d, 0x0d, 0x15, 0xf1, 0xbd, 0x3b, 0x4e, 0x5d, 0xbe,
  0x73, 0xd1, 0xb9, 0xbd, 0xa1, 0x51, 0xd4, 0x3d, 0x4f, 0xf6, 0xb5, 0xbc,
  0xc8, 0x14, 0x38, 0xbe, 0x79, 0x3f, 0xa6, 0x3c, 0x7f, 0xdb, 0xf0, 0xbd,
  0x08, 0xf5, 0xc7, 0x3d, 0xff, 0x98, 0xc5, 0x3d, 0xfc, 0x4b, 0xdb, 0x3d,
  0x6c, 0xe7, 0x09, 0xbe, 0xd8, 0x1a, 0x24, 0x3e, 0x06, 0xd0, 0x14, 0x3e,
  0xf7, 0x42, 0x54, 0xbe, 0x93, 0x24, 0x4f, 0xbd, 0x83, 0x2c, 0xd0, 0xbd,
  0xb6, 0x14, 0x5b, 0xbe, 0xfa, 0xb3, 0x66, 0xbd, 0xd4, 0xb6, 0x13, 0x3e,
  0xe7, 0xc7, 0xb2, 0x3d, 0x41, 0x90, 0x6a, 0xbd, 0xb8, 0x18, 0xaf, 0xbd,
  0x81, 0xd3, 0x64, 0x3e, 0x3c, 0xbe, 0xc7, 0xbd, 0xad, 0x5b, 0x57, 0xbb,
  0xb4, 0x17, 0x84, 0x3d, 0x14, 0x23, 0xf9, 0xbd, 0xc7, 0x52, 0xa5, 0xbd,
  0xa9, 0xd4, 0xd1, 0xbd, 0x38, 0xf1, 0x17, 0x3e, 0xa7, 0xce, 0x35, 0xbe,
  0xc9, 0xd4, 0xd8, 0xbd, 0x1c, 0x1b, 0x85, 0x3e, 0x2e, 0x73, 0xf8, 0xbd,
  0xdd, 0x66, 0x10, 0x3a, 0x33, 0x92, 0xfe, 0x3d, 0xa2, 0xc4, 0x68, 0xbe,
  0xff, 0x52, 0xfd, 0x3d, 0x03, 0xff, 0x65, 0x3e, 0x01, 0x1f, 0xb0, 0xbd,
  0xdb, 0xf0, 0x31, 0x3e, 0x4b, 0x12, 0xc5, 0xbd, 0x56, 0x17, 0x46, 0xbc,
  0x92, 0xf6, 0x88, 0xbd, 0x19, 0x17, 0xaf, 0xbe, 0x71, 0x7d, 0xa2, 0x3c,
  0x59, 0x88, 0x8c, 0xbd, 0xf7, 0x9b, 0x16, 0xbe, 0x0c, 0xcd, 0x18, 0xbe,
  0xa7, 0xd6, 0xd6, 0xbd, 0x23, 0x86, 0x88, 0x3e, 0xdb, 0x12, 0x9b, 0xbd,
  0x57, 0x90, 0x02, 0x3e, 0x94, 0xa0, 0x14, 0x3e, 0x8c, 0xdd, 0xbf, 0x3d,
  0x15, 0x05, 0xbc, 0xbc, 0x74, 0xe2, 0x43, 0x3e, 0xda, 0x9a, 0xcb, 0xbd,
  0x21, 0xba, 0x3b, 0x3d, 0xf7, 0xce, 0x08, 0xbd, 0x0c, 0x7e, 0x08, 0xbd,
  0xe3, 0x85, 0x46, 0x3c, 0x14, 0x7b, 0x39, 0x3e, 0x5c, 0xd1, 0x53, 0xbd,
  0x9b, 0x87, 0x81, 0xbd, 0xf9, 0x6a, 0xe3, 0xbc, 0xca, 0x65, 0xa4, 0x3d,
  0x2f, 0xa5, 0x28, 0x3e, 0xbd, 0x44, 0xe8, 0xbd, 0x6f, 0x4a, 0xfd, 0xbd,
  0x8e, 0xfa, 0xf5, 0x3c, 0xde, 0xff, 0x02, 0x3e, 0x5a, 0x6b, 0x51, 0xbc,
  0xbc, 0x74, 0xd9, 0xbc, 0x4e, 0xd3, 0xc0, 0xbc, 0x3d, 0x65, 0xb1, 0x3d,
  0xc9, 0xa1, 0xda, 0xbd, 0xe0, 0xc0, 0x9b, 0xbd, 0x63, 0x83, 0x69, 0xbd,
  0x3b, 0xa8, 0x1d, 0x3e, 0xd1, 0x9c, 0xc1, 0x3d, 0xc3, 0xa7, 0xc7, 0xbd,
  0xe7, 0xaf, 0x4a, 0x3e, 0x00, 0x24, 0x66, 0xbc, 0x37, 0x30, 0xa2, 0x3c,
  0x17, 0xf6, 0xc7, 0xbd, 0x9b, 0x27, 0x31, 0xbe, 0x76, 0x99, 0x28, 0x3d,
  0x16, 0x21, 0x47, 0xbd, 0x4d, 0x5d, 0xf9, 0x3d, 0xc6, 0x09, 0x00, 0x3e,
  0xec, 0x30, 0x7f, 0x3e, 0xa5, 0xf7, 0x62, 0xbe, 0xca, 0xe6, 0xba, 0xbd,
  0xcf, 0x1f, 0xdb, 0x3b, 0xce, 0x7d, 0xe0, 0x3d, 0x3f, 0x5e, 0xef, 0xbd,
  0x36, 0x80, 0x76, 0xbc, 0x8d, 0x07, 0x11, 0xbe, 0x67, 0x34, 0x15, 0x3e,
  0x91, 0x75, 0xfa, 0x3c, 0xd3, 0x66, 0x1e, 0xbe, 0x28, 0x2c, 0x0e, 0xbd,
  0x07, 0xc2, 0x1f, 0x3d, 0x05, 0x39, 0x6a, 0xbb, 0x5f, 0x30, 0x03, 0x3e,
  0xe8, 0x0d, 0x90, 0x3d, 0x23, 0xc4, 0x1e, 0xbe, 0x24, 0xee, 0x66, 0xbd,
  0x5d, 0xb4, 0x4b, 0xbe, 0x10, 0x8a, 0x44, 0x3b, 0x9d, 0x9c, 0x59, 0xbe,
  0x9e, 0xed, 0x54, 0xbd, 0x16, 0x8d, 0x5b, 0xbd, 0xf1, 0x59, 0xc8, 0x3c,
  0x5d, 0xbd, 0x36, 0x3d, 0xe4, 0x7f, 0xe4, 0xbc, 0xd0, 0xa2, 0x6a, 0x3d,
  0x68, 0x07, 0xed, 0xbd, 0x4c, 0x50, 0xd2, 0x3c, 0x34, 0xdb, 0x7a, 0xbd,
  0xfd, 0x21, 0x09, 0xbe, 0x1d, 0x08, 0xa5, 0x3c, 0x2b, 0x0e, 0x78, 0xbd,
  0x48, 0x0a, 0xd2, 0xbd, 0x87, 0x45, 0xb6, 0x3d, 0x56, 0x25, 0x35, 0x3e,
  0x7c, 0xdd, 0x9c, 0x3b, 0xb4, 0xe7, 0x5a, 0xbe, 0xcd, 0x0a, 0xa3, 0xbc,
  0x42, 0x1f, 0xc2, 0xbd, 0x09, 0xd6, 0xb4, 0xbc, 0x4b, 0x79, 0xef, 0xbd,
  0xe0, 0x11, 0x4a, 0xbc, 0xce, 0xa9, 0x2d, 0x3e, 0xa5, 0x99, 0x61, 0x3e,
  0xf7, 0xf4, 0xce, 0xbd, 0x91, 0x41, 0xf4, 0x3d, 0x01, 0xbf, 0xac, 0x3c,
  0x5c, 0x35, 0x16, 0xbc, 0xd8, 0x9a, 0x76, 0xbd, 0x40, 0xad, 0x1b, 0xbe,
  0xee, 0x87, 0xc1, 0xbd, 0x14, 0xba, 0x18, 0xbd, 0x73, 0x45, 0xb5, 0xbd,
  0xe5, 0x5f, 0xed, 0x3d, 0x00, 0x46, 0x3b, 0x3e, 0xde, 0x3e, 0x99, 0xbd,
  0xb4, 0x55, 0xba, 0x3d, 0x0b, 0x58, 0xa1, 0xbd, 0x7f, 0x7a, 0x04, 0xbd,
  0x45, 0x77, 0xb1, 0x3c, 0x6d, 0x9c, 0x00, 0x3e, 0x19, 0x2d, 0x51, 0xbd,
  0x99, 0xc8, 0x33, 0x3d, 0xdc, 0x6a, 0x8f, 0x3e, 0xdb, 0xdf, 0xda, 0xbd,
  0x19, 0x74, 0x99, 0xbd, 0x17, 0x43, 0x51, 0x3e, 0xdb, 0x9b, 0xf7, 0xbd,
  0x7b, 0x72, 0xd6, 0xbb, 0x0b, 0xf3, 0x1c, 0x3d, 0x0b, 0xbb, 0xc3, 0x3d,
  0x84, 0x50, 0xdf, 0xbc, 0x16, 0xb4, 0xa3, 0xbe, 0xc7, 0xee, 0x99, 0x3d,
  0x1e, 0xa0, 0xac, 0xbd, 0x8e, 0xac, 0xf7, 0x3b, 0x50, 0xf8, 0x50, 0x3d,
  0xc9, 0x19, 0xb7, 0x3d, 0x31, 0x8c, 0xa6, 0x3d, 0x2e, 0x98, 0x61, 0xbd,
  0xbd, 0x80, 0x27, 0x3e, 0xfd, 0x44, 0xc2, 0x3d, 0x25, 0xc0, 0x13, 0x3e,
  0x44, 0xdf, 0x07, 0x3e, 0x2b, 0x95, 0xbe, 0xbc, 0x04, 0x28, 0x9b, 0xbc,
  0x47, 0x7f, 0x22, 0x3e, 0x43, 0x3b, 0x46, 0xbd, 0x1a, 0x53, 0x25, 0xbd,
  0xef, 0xa3, 0x87, 0x3d, 0x42, 0x9c, 0xe5, 0xbd, 0xd6, 0x7c, 0x25, 0x3e,
  0x43, 0x1b, 0xb3, 0xbd, 0xa5, 0xc7, 0x46, 0x3e, 0xb0, 0x81, 0x31, 0x3e,
  0x6f, 0x9d, 0x34, 0xbb, 0xde, 0x41, 0xe8, 0xbb, 0xa2, 0x6f, 0x06, 0x3e,
  0x37, 0xe9, 0x64, 0xbd, 0xc2, 0x08, 0xfc, 0xbd, 0xc1, 0xb3, 0x6b, 0xbd,
  0x6f, 0xd3, 0x23, 0xbd, 0x26, 0xfc, 0x1e, 0x3e, 0x8f, 0x30, 0x94, 0x3d,
  0xb4, 0x56, 0x48, 0x3e, 0x0e, 0x5b, 0x20, 0x3d, 0x34, 0x21, 0x0b, 0xbe,
  0x43, 0xe2, 0x04, 0xbe, 0x9d, 0x3e, 0x85, 0x3e, 0x2b, 0x77, 0x1c, 0x3e,
  0xe5, 0xa1, 0x12, 0x3d, 0xc1, 0x64, 0xfa, 0x3d, 0xc3, 0xdb, 0x2b, 0xbe,
  0x62, 0xd9, 0x0e, 0x3c, 0xca, 0xf1, 0x92, 0x3e, 0xe1, 0x93, 0x12, 0xbe,
  0xc4, 0xef, 0xc8, 0xbd, 0x6d, 0xdb, 0x09, 0x3e, 0xff, 0xd5, 0x40, 0xbc,
  0x06, 0xf4, 0x75, 0xbe, 0x2b, 0x0f, 0xac, 0xbd, 0x40, 0xa3, 0x03, 0xbe,
  0x2a, 0xd0, 0x38, 0x3e, 0xb6, 0x27, 0x99, 0xbe, 0xb6, 0x5f, 0x9b, 0xbd,
  0x3f, 0x0e, 0x96, 0x3c, 0x45, 0xe9, 0x55, 0x3e, 0x46, 0x96, 0xd4, 0x3c,
  0x86, 0x45, 0x1b, 0xbe, 0x75, 0xea, 0xd3, 0x3b, 0xa1, 0x12, 0x15, 0x3e,
  0x65, 0x7f, 0x56, 0x3d, 0x24, 0xa0, 0x8e, 0xbd, 0x4c, 0x1f, 0xb5, 0x3d,
  0x80, 0x10, 0x20, 0x3e, 0x57, 0xa6, 0xff, 0xbd, 0x26, 0x70, 0xd9, 0xbd,
  0xa9, 0x59, 0xcd, 0xbd, 0x4a, 0x04, 0xb5, 0x3d, 0x07, 0xde, 0x98, 0x3b,
  0xc9, 0x8d, 0x3f, 0xbc, 0x08, 0xa0, 0xb1, 0x3c, 0xa3, 0x2c, 0x89, 0x3e,
  0x57, 0x25, 0x16, 0xbe, 0xa3, 0x4e, 0x07, 0xbe, 0x36, 0x29, 0xb3, 0x3d,
  0x92, 0x26, 0xe4, 0x3d, 0x23, 0xb7, 0x1f, 0xbd, 0xcd, 0x0d, 0x0e, 0xbd,
  0x3c, 0x1c, 0xfd, 0x3d, 0x05, 0xe9, 0x26, 0x3c, 0x28, 0xfd, 0x24, 0x3d,
  0x3d, 0x8c, 0x92, 0x3d, 0xb9, 0xf5, 0x73, 0xbe, 0xbe, 0x80, 0x38, 0xbc,
  0x2e, 0xc9, 0x99, 0xbd, 0xfb, 0x7f, 0xaa, 0x3d, 0x8d, 0x55, 0x25, 0x3e,
  0x6c, 0x55, 0x9a, 0xbc, 0xf9, 0xe7, 0x83, 0xbc, 0xcb, 0x4a, 0x48, 0xbe,
  0x0b, 0x74, 0x9e, 0xbd, 0x02, 0xa4, 0xdc, 0xbd, 0xf3, 0x30, 0x10, 0xbd,
  0xb9, 0xe1, 0xca, 0xbc, 0x09, 0x43, 0x89, 0x3e, 0xf5, 0x5a, 0x9f, 0xbd,
  0x22, 0x07, 0x8a, 0xbb, 0x63, 0x2d, 0x2f, 0x3e, 0xed, 0xa2, 0x18, 0x3d,
  0x5e, 0x96, 0x1e, 0x3d, 0x0f, 0xed, 0x0d, 0x3d, 0xe3, 0x9a, 0xbc, 0x3d,
  0xdb, 0x7e, 0x5e, 0x3e, 0x7f, 0x7a, 0xdd, 0x3d, 0x0c, 0x6e, 0xa8, 0xbd,
  0xed, 0xa9, 0x6a, 0xbe, 0x71, 0x94, 0x0d, 0x3e, 0x65, 0x5c, 0x3a, 0xbd,
  0x61, 0x8a, 0x08, 0xbd, 0x6b, 0xa6, 0x01, 0xbe, 0xac, 0xdf, 0x1a, 0xbd,
  0xe6, 0x02, 0x5c, 0xbe, 0x58, 0x25, 0xcf, 0x3d, 0xe3, 0x46, 0x3e, 0x3e,
  0x32, 0x07, 0x28, 0x3d, 0x75, 0x62, 0xf9, 0x3b, 0x38, 0x33, 0x4d, 0xbc,
  0x27, 0x8d, 0xf4, 0xbd, 0x3e, 0x94, 0x38, 0xbd, 0xb5, 0xeb, 0x0b, 0x3e,
  0x3a, 0x9e, 0x02, 0xbe, 0x15, 0x1b, 0x43, 0xbe, 0xd7, 0x92, 0x6c, 0xbd,
  0xed, 0xd6, 0x26, 0xbd, 0x55, 0x1c, 0x9f, 0x3d, 0x95, 0x97, 0x8a, 0xbc,
  0xd6, 0x64, 0x33, 0x3e, 0xd5, 0x7a, 0x1b, 0xbe, 0x4d, 0xc3, 0x38, 0x3e,
  0x4b, 0x0c, 0x15, 0xbe, 0x6f, 0x00, 0xb6, 0xbd, 0x88, 0x0e, 0x90, 0xbd,
  0x51, 0x34, 0x4b, 0x3c, 0x09, 0x7c, 0x87, 0xbe, 0x4a, 0xf1, 0x31, 0x3c,
  0x03, 0xdd, 0x81, 0xbc, 0x21, 0x14, 0x9b, 0x3d, 0x9e, 0x19, 0x2a, 0x3d,
  0x34, 0x0e, 0x63, 0x3d, 0x7a, 0xcb, 0xf1, 0xba, 0xcf, 0x4b, 0x26, 0x3e,
  0xfd, 0x8b, 0x09, 0x3e, 0x3a, 0x8c, 0x76, 0xbc, 0x49, 0x59, 0xc3, 0xbc,
  0xc3, 0x39, 0xf6, 0xbd, 0x96, 0x5c, 0x81, 0x3e, 0xed, 0x65, 0x2b, 0x3d,
  0xf5, 0x81, 0x0c, 0x3e, 0xb5, 0x6c, 0x4e, 0x3c, 0x63, 0x67, 0xe0, 0xbc,
  0xc6, 0xd9, 0x24, 0x3d, 0x87, 0xf1, 0x0e, 0x3e, 0x9c, 0xea, 0x4e, 0x3e,
  0x9d, 0x09, 0x77, 0x3e, 0xdb, 0x4c, 0x5c, 0xbe, 0x05, 0xba, 0x1e, 0x3e,
  0x53, 0x1a, 0x91, 0x3d, 0x4f, 0x5c, 0x09, 0xbe, 0x9e, 0xcb, 0xa3, 0x3d,
  0x01, 0xfc, 0xe5, 0x3a, 0x6f, 0x01, 0x5f, 0xbe, 0x99, 0x87, 0xc7, 0x3d,
  0x0b, 0x19, 0x52, 0x3d, 0x27, 0x88, 0xb9, 0x3d, 0x41, 0xbe, 0xc2, 0x3c,
  0x30, 0xea, 0xa5, 0x3d, 0x9e, 0x23, 0xf6, 0x3d, 0xeb, 0x74, 0x70, 0x3d,
  0x36, 0x7f, 0xae, 0x3d, 0xce, 0x60, 0xad, 0x3b, 0xa5, 0x18, 0x23, 0x3e,
  0x2f, 0xe8, 0x94, 0xbc, 0xef, 0xa6, 0xce, 0x3d, 0x72, 0x05, 0x96, 0xbd,
  0xe0, 0x76, 0xcb, 0x3d, 0x61, 0x73, 0xd6, 0xbc, 0xfe, 0xdf, 0x85, 0x3d,
  0xd3, 0x94, 0x90, 0x3c, 0xb1, 0x0f, 0x9e, 0x3d, 0x8c, 0xb3, 0xc7, 0x3d,
  0xa3, 0x21, 0xf6, 0xbd, 0x08, 0xe1, 0x99, 0xbc, 0x05, 0x02, 0x07, 0xbc,
  0xc7, 0x74, 0xa2, 0xbd, 0xb4, 0xc9, 0x55, 0xbd, 0x9e, 0xb5, 0xe5, 0xbd,
  0x8c, 0x94, 0x39, 0x3c, 0x8c, 0xf2, 0xa5, 0x3d, 0xcb, 0x65, 0x65, 0x3d,
  0x28, 0xec, 0x6b, 0xbd, 0xda, 0x52, 0x8f, 0x3b, 0xbd, 0xce, 0x83, 0x3d,
  0x31, 0x15, 0xb2, 0x3c, 0xd5, 0xf2, 0x3e, 0x3e, 0x07, 0xe5, 0x81, 0x3d,
  0x36, 0x08, 0x17, 0xbe, 0x7c, 0xaa, 0x4a, 0x3e, 0xc5, 0xf4, 0x77, 0xbe,
  0xab, 0x2a, 0x7e, 0xbc, 0xb0, 0x6d, 0x59, 0xbe, 0xf0, 0xf5, 0x2e, 0x3e,
  0x62, 0x48, 0x25, 0xbc, 0xa7, 0xaa, 0xb0, 0xbd, 0xf1, 0x71, 0x42, 0xbe,
  0x30, 0xad, 0x0e, 0xbe, 0x3c, 0xa6, 0x59, 0xbd, 0x27, 0x29, 0x90, 0xbd,
  0xa0, 0xc8, 0x9f, 0xbd, 0x6c, 0x15, 0xdf, 0x3d, 0x68, 0xcd, 0x09, 0xbe,
  0x79, 0x55, 0xbe, 0x3d, 0x2d, 0xf5, 0xfd, 0x3d, 0xa1, 0x78, 0xd0, 0x3d,
  0x0b, 0x97, 0x29, 0xbe, 0x06, 0x22, 0x9f, 0xbd, 0xa7, 0xb3, 0x57, 0x3c,
  0x3b, 0x29, 0x19, 0xbe, 0x06, 0x14, 0x49, 0x3e, 0x0a, 0x6e, 0x66, 0x3d,
  0xdf, 0x4b, 0x06, 0xbe, 0x78, 0xe6, 0x89, 0xbd, 0xad, 0x53, 0x29, 0xbd,
  0xec, 0xb2, 0x03, 0x3c, 0x5c, 0x7b, 0x38, 0xbe, 0x32, 0x7c, 0x54, 0x3c,
  0xa1, 0x4e, 0x4f, 0xbd, 0x9d, 0x7e, 0xe6, 0xbd, 0x07, 0x27, 0xab, 0xbd,
  0xdf, 0x97, 0xfc, 0x3d, 0x09, 0x8c, 0x10, 0x3d, 0x08, 0x2b, 0x20, 0xbe,
  0x55, 0xeb, 0xa6, 0xbc, 0x60, 0x61, 0x04, 0x3e, 0x7d, 0xfa, 0x07, 0xbd,
  0xa9, 0x22, 0xab, 0x3d, 0x27, 0x92, 0x76, 0xbe, 0xbf, 0xb7, 0xd5, 0xbc,
  0x33, 0xce, 0x25, 0xbd, 0x49, 0x98, 0x30, 0x3e, 0x97, 0x84, 0xb1, 0x3c,
  0xab, 0x6f, 0x3d, 0xbe, 0x84, 0xeb, 0x0f, 0xbc, 0x72, 0x0f, 0x2d, 0xbd,
  0xdd, 0x1d, 0x60, 0x3e, 0x09, 0x39, 0xd6, 0xba, 0x3a, 0xa1, 0x7f, 0x3d,
  0xed, 0x3a, 0x08, 0xbd, 0xfe, 0x0a, 0xe3, 0xbd, 0x00, 0xbe, 0xdd, 0xbc,
  0x6f, 0x9c, 0x50, 0xbd, 0xb9, 0xe6, 0x2f, 0x3e, 0xd7, 0xba, 0x63, 0x3e,
  0xa4, 0x45, 0x78, 0x3c, 0x0d, 0x9d, 0x5f, 0xbb, 0xaa, 0xb9, 0x3c, 0x3e,
  0x8d, 0x9a, 0xad, 0xbd, 0x64, 0xe6, 0xaa, 0xbc, 0xfe, 0x75, 0x78, 0xbc,
  0xd7, 0x38, 0xea, 0xbd, 0x8e, 0x74, 0xcd, 0xbd, 0xbc, 0x0c, 0x12, 0xbe,
  0x41, 0x34, 0x93, 0x3c, 0xca, 0x91, 0xe1, 0x3c, 0xf5, 0x24, 0xf7, 0xbd,
  0x0a, 0x06, 0xd2, 0x3c, 0x98, 0x00, 0xbe, 0x3d, 0x32, 0x04, 0x7c, 0xbe,
  0x1b, 0x40, 0x5a, 0xbb, 0x80, 0xfc, 0x1d, 0xbe, 0x7f, 0x4a, 0xea, 0xbd,
  0x09, 0xfa, 0xf7, 0xbc, 0x62, 0xf5, 0xd0, 0xbd, 0xa5, 0x2b, 0x17, 0xbe,
  0xef, 0x1c, 0xd6, 0x3c, 0xef, 0x4c, 0x4a, 0x3a, 0x55, 0x81, 0x86, 0xbc,
  0xff, 0x61, 0x40, 0x3d, 0x74, 0x17, 0x4c, 0x3c, 0x8d, 0x66, 0xc0, 0x3d,
  0xb1, 0x78, 0x81, 0xbd, 0xfa, 0xaf, 0x65, 0xbd, 0x82, 0x0a, 0x88, 0xbd,
  0xd2, 0x9e, 0xe4, 0xbd, 0xc6, 0xea, 0xbb, 0xbd, 0xa2, 0x7d, 0xaf, 0xbd,
  0x28, 0x22, 0xf1, 0xbc, 0x4f, 0x3e, 0x01, 0xbe, 0x4e, 0x74, 0xcc, 0x3b,
  0xfe, 0xd7, 0x50, 0x3e, 0x30, 0x73, 0x77, 0x3d, 0xbd, 0x11, 0x86, 0xbd,
  0x29, 0xe9, 0x40, 0x3e, 0xb2, 0x18, 0x41, 0x3d, 0x70, 0xdb, 0xf0, 0xbd,
  0x4d, 0x5a, 0x05, 0x3e, 0x29, 0xc1, 0x42, 0xbe, 0x29, 0x7a, 0x15, 0x3e,
  0x0b, 0x81, 0xfa, 0xbd, 0xe1, 0x58, 0x2d, 0xbe, 0x1c, 0x81, 0xef, 0x3d,
  0x54, 0xbe, 0x0c, 0xbe, 0x0b, 0xa7, 0x29, 0xbe, 0x23, 0x5e, 0x83, 0xbc,
  0x07, 0x26, 0x10, 0xbe, 0x5b, 0x8b, 0xe2, 0x3d, 0xe8, 0x01, 0x7f, 0x3d,
  0xcd, 0xaa, 0x16, 0xbe, 0xca, 0x9c, 0xc9, 0xbc, 0x61, 0xf6, 0x04, 0x3d,
  0xbd, 0xc9, 0xd7, 0xbd, 0x35, 0xb8, 0x42, 0x3c, 0x09, 0xf8, 0xd9, 0x3d,
  0xb7, 0xf7, 0x92, 0xbd, 0x95, 0x6d, 0x4c, 0xbe, 0xa2, 0x7d, 0xe2, 0x3c,
  0x33, 0x96, 0xf0, 0xbc, 0xa7, 0xe1, 0x5f, 0xbd, 0x1a, 0x11, 0x2f, 0x3e,
  0x7d, 0x39, 0x2d, 0xbe, 0xb5, 0x3b, 0x19, 0x3e, 0x88, 0x79, 0x9a, 0x3d,
  0x86, 0x10, 0xa6, 0xbc, 0x48, 0x6f, 0x21, 0xbc, 0x69, 0x52, 0x71, 0xbd,
  0x0d, 0x56, 0x2d, 0x3d, 0xdf, 0x8d, 0x1e, 0xbe, 0x15, 0xf4, 0x69, 0x3d,
  0x00, 0x32, 0xa5, 0x3d, 0xe3, 0xad, 0xb6, 0xbd, 0xce, 0x05, 0xc7, 0x3d,
  0x48, 0x52, 0x7d, 0xbe, 0xdb, 0xa3, 0x05, 0x3e, 0x23, 0x67, 0x3c, 0xbe,
  0x07, 0x6f, 0x42, 0xbe, 0xae, 0xd1, 0x19, 0x3e, 0xce, 0xd5, 0x40, 0x3e,
  0x6d, 0x68, 0x1b, 0xbc, 0xac, 0x49, 0x75, 0xbd, 0x6b, 0x16, 0x94, 0x3d,
  0x68, 0x25, 0x83, 0xbe, 0xa5, 0x1b, 0xf0, 0x3d, 0x1c, 0x86, 0x9c, 0xbd,
  0x7c, 0xb3, 0x08, 0xbd, 0xe9, 0x0f, 0x46, 0xbc, 0x9a, 0x08, 0x22, 0xbe,
  0x90, 0x47, 0x61, 0xbe, 0x65, 0x06, 0x03, 0xbd, 0xab, 0xae, 0xf2, 0x3d,
  0x2b, 0x24, 0x3e, 0x3d, 0x1e, 0xe3, 0x79, 0xbd, 0xe2, 0x98, 0x12, 0xbe,
  0x98, 0x38, 0x6c, 0xbe, 0x55, 0xce, 0x8f, 0x3d, 0xb1, 0x04, 0x9b, 0x3d,
  0x78, 0xb7, 0xd6, 0x3d, 0x1c, 0x8d, 0xca, 0x3c, 0x47, 0xb2, 0x5b, 0x3e,
  0xa7, 0x1b, 0xa4, 0xbd, 0x68, 0x7a, 0x36, 0xbd, 0x03, 0x67, 0x1a, 0x3d,
  0xf5, 0x9a, 0x95, 0xbd, 0xf5, 0x8f, 0x24, 0x3d, 0xeb, 0x60, 0x57, 0xbd,
  0x16, 0xe3, 0x1a, 0x3e, 0xf3, 0x73, 0x1e, 0xbd, 0x38, 0xf4, 0xcb, 0xbd,
  0xba, 0x1d, 0x18, 0xbe, 0x36, 0x87, 0x6f, 0x3d, 0xd8, 0xd9, 0xcf, 0x3d,
  0x4f, 0xee, 0x95, 0x3d, 0x41, 0x22, 0x11, 0xbd, 0xf4, 0xcf, 0xda, 0xbd,
  0x65, 0x92, 0x4b, 0xbe, 0xe0, 0xdd, 0x0e, 0x3d, 0xcb, 0x1f, 0xa2, 0xbd,
  0xa9, 0x5b, 0x40, 0xbe, 0x1c, 0x5c, 0xe5, 0xbd, 0xb5, 0x6a, 0xe6, 0x3c,
  0x60, 0x89, 0x57, 0x3d, 0xf9, 0x9d, 0xa2, 0xbd, 0xf7, 0x5b, 0x16, 0xbd,
  0x78, 0x35, 0x86, 0xbd, 0x68, 0x50, 0xc4, 0xbd, 0x49, 0xd5, 0x38, 0x3e,
  0xf5, 0xca, 0x52, 0x3e, 0xb1, 0xe5, 0xe3, 0x3d, 0xa2, 0xdc, 0xd4, 0xbd,
  0x66, 0xc5, 0x98, 0xbd, 0x4d, 0xf6, 0x51, 0x3d, 0xb4, 0xca, 0xa4, 0x3d,
  0x0b, 0xa5, 0x49, 0xbe, 0x38, 0x05, 0x46, 0xbe, 0xd8, 0xaf, 0x54, 0xbe,
  0xfe, 0x5c, 0x0d, 0x3d, 0x99, 0x56, 0x34, 0x3d, 0xae, 0x57, 0x7d, 0x3c,
  0x32, 0xdf, 0x41, 0x3d, 0x72, 0x46, 0x14, 0x3c, 0x8a, 0xc3, 0x85, 0x3e,
  0x4c, 0x2b, 0xea, 0xbc, 0x8e, 0xde, 0xc0, 0x3c, 0xca, 0x5a, 0xc2, 0x3b,
  0xdf, 0xe6, 0x97, 0xbd, 0xdb, 0x32, 0x84, 0x3d, 0x48, 0xd0, 0x31, 0xbd,
  0xc6, 0x0a, 0xa8, 0xbd, 0xfb, 0xec, 0x25, 0xbd, 0xc2, 0x5d, 0x85, 0x3c,
  0x47, 0x3b, 0x07, 0x3e, 0xd6, 0x5d, 0x68, 0x3d, 0x72, 0xcd, 0xfc, 0xbd,
  0x60, 0xfd, 0xf4, 0xba, 0x37, 0x74, 0x83, 0xbd, 0x06, 0x58, 0x72, 0xbd,
  0x7b, 0xba, 0x4c, 0xbd, 0x17, 0xe8, 0x77, 0x3e, 0xe2, 0xfd, 0x31, 0xbe,
  0xc7, 0x10, 0xb6, 0x3d, 0x67, 0xf6, 0xf6, 0x3d, 0xc7, 0x7f, 0x8b, 0xbd,
  0xcf, 0xf6, 0xee, 0x3c, 0x60, 0xa1, 0xf7, 0x3d, 0xef, 0x20, 0x38, 0x3e,
  0x82, 0xc2, 0x85, 0xbe, 0x59, 0x77, 0x7d, 0xbe, 0x19, 0x02, 0x8a, 0xbe,
  0x6e, 0x4d, 0x18, 0xbd, 0x31, 0xbd, 0xf1, 0xbc, 0xa6, 0x20, 0xf7, 0xba,
  0x64, 0x6c, 0xb3, 0xbc, 0x4a, 0xf0, 0xdf, 0x3c, 0x1d, 0x10, 0x68, 0x3d,
  0x9a, 0x41, 0x35, 0xbd, 0x7f, 0xa7, 0xe5, 0x3d, 0x83, 0x6d, 0x2f, 0xbd,
  0x92, 0x76, 0x6f, 0x3c, 0x99, 0x3f, 0x69, 0xbe, 0xf2, 0xcd, 0x87, 0xbc,
  0xfd, 0x4a, 0x99, 0xbc, 0xcf, 0x2d, 0x2d, 0xbe, 0x39, 0xf5, 0xf7, 0xbc,
  0xbf, 0x28, 0xaa, 0xbd, 0x2c, 0xda, 0x1f, 0xbe, 0x24, 0xd4, 0x0f, 0xbe,
  0xb4, 0x00, 0xb9, 0x3d, 0x89, 0xae, 0xb9, 0x3d, 0x81, 0x86, 0xa2, 0x3d,
  0xf6, 0xd4, 0x40, 0xbd, 0x7b, 0x96, 0xb3, 0x3b, 0x9c, 0xcf, 0xae, 0x3c,
  0x04, 0x48, 0xef, 0x3c, 0xd0, 0xbe, 0xb8, 0xbd, 0xc0, 0xe5, 0xcc, 0x3c,
  0x20, 0x5d, 0x54, 0x3e, 0x2a, 0x66, 0xe0, 0x3d, 0xdc, 0x75, 0x3e, 0xbd,
  0xe3, 0x41, 0xf3, 0xbc, 0x17, 0xfa, 0x01, 0xbe, 0x92, 0xf3, 0x90, 0xbd,
  0xe2, 0xdd, 0x86, 0x3d, 0xff, 0xb9, 0xd8, 0x3d, 0xe1, 0xea, 0xab, 0x3d,
  0xea, 0x05, 0xf9, 0xbd, 0x08, 0x6c, 0x20, 0xbd, 0xaa, 0x91, 0xa8, 0x3d,
  0xe9, 0x01, 0x2f, 0xbe, 0x08, 0x78, 0x26, 0x3e, 0x01, 0xd6, 0x14, 0x3e,
  0xa2, 0xc7, 0xea, 0x3d, 0x40, 0x62, 0x26, 0xbd, 0x63, 0x56, 0x0d, 0xbd,
  0x7c, 0x8d, 0x81, 0x3d, 0xa7, 0x79, 0x9e, 0xbd, 0xfe, 0xd7, 0xc9, 0x3d,
  0x3a, 0x2b, 0x61, 0x3e, 0x1a, 0x7f, 0xd4, 0x3d, 0xe4, 0xfe, 0xbe, 0xbd,
  0x1b, 0x70, 0x96, 0x3d, 0x4a, 0x04, 0x8d, 0x3c, 0x0b, 0x6e, 0x5d, 0x3d,
  0x83, 0x98, 0x47, 0xbd, 0x45, 0x50, 0x73, 0x3e, 0x6a, 0x70, 0x79, 0xbe,
  0xab, 0xd7, 0xdf, 0x39, 0xcd, 0xb3, 0xa0, 0x3d, 0x17, 0xc1, 0x21, 0xbd,
  0x83, 0xd4, 0x09, 0xbe, 0x78, 0x3d, 0xbb, 0x3d, 0x1c, 0xac, 0xc3, 0x3d,
  0x85, 0xed, 0x95, 0xbd, 0xe1, 0x96, 0x0c, 0x3e, 0xa4, 0xa5, 0x98, 0xbd,
  0x40, 0x54, 0xf7, 0xbd, 0x5a, 0xee, 0xc3, 0x3d, 0x20, 0xf2, 0x02, 0xbe,
  0x9c, 0xac, 0xc3, 0xbd, 0xaf, 0x03, 0x13, 0x3d, 0x89, 0x48, 0x2b, 0xbe,
  0x58, 0x7b, 0x7f, 0x3d, 0x7f, 0xb0, 0x06, 0x3e, 0x3e, 0xd5, 0xa4, 0xbd,
  0x46, 0xbb, 0xe5, 0xbd, 0x36, 0x02, 0xdc, 0xbd, 0x2e, 0x70, 0x2b, 0xbd,
  0x94, 0x28, 0x1f, 0x3d, 0x5e, 0x90, 0x1f, 0xbe, 0x6f, 0x8f, 0xb5, 0xbd,
  0x37, 0x24, 0xa3, 0x3d, 0x51, 0x1e, 0x80, 0xbd, 0xb7, 0x33, 0x9b, 0xbd,
  0x6c, 0xc4, 0xe4, 0xbb, 0x4b, 0x6c, 0xc3, 0x3d, 0x66, 0x03, 0x55, 0xbe,
  0xc3, 0x36, 0xfc, 0xbd, 0x37, 0xe0, 0x0f, 0xbe, 0xa9, 0xdf, 0x18, 0xbe,
  0x41, 0x06, 0x94, 0x3d, 0x30, 0x4b, 0xa5, 0x3c, 0x71, 0xc5, 0x92, 0x3d,
  0xec, 0x54, 0xe5, 0x3d, 0x09, 0x97, 0x6b, 0x3d, 0x07, 0x2d, 0xa2, 0x3d,
  0x23, 0xcd, 0x14, 0x3d, 0x2a, 0xce, 0x01, 0xbe, 0x36, 0x13, 0x49, 0x3c,
  0x40, 0x68, 0xd7, 0x3c, 0xf5, 0xda, 0xb2, 0x3d, 0xa7, 0xd9, 0x2a, 0xbd,
  0x6c, 0x67, 0xa9, 0xbd, 0xc6, 0x27, 0x61, 0x3e, 0xd5, 0x6c, 0x83, 0x3e,
  0xa4, 0xc3, 0xd3, 0x3d, 0xf9, 0x13, 0xdd, 0x3d, 0xac, 0x2a, 0xc5, 0xbd,
  0xd9, 0xcf, 0x6c, 0xbe, 0x9b, 0x65, 0x73, 0xbd, 0xeb, 0xd5, 0xa4, 0x3c,
  0x09, 0x2e, 0x8d, 0xbc, 0x52, 0x85, 0xd3, 0xbd, 0x19, 0xdb, 0x4f, 0xbe,
  0x37, 0xe5, 0x52, 0x3c, 0xfc, 0xab, 0x6c, 0x3e, 0x76, 0x8c, 0xff, 0xbd,
  0xea, 0xf7, 0x88, 0xbd, 0xd9, 0xa0, 0x00, 0x3e, 0xd1, 0x9b, 0x30, 0x3e,
  0xf3, 0xea, 0xda, 0xbd, 0x37, 0x78, 0xbc, 0xbd, 0xcf, 0x72, 0x28, 0xbe,
  0xac, 0xa4, 0x0c, 0x3e, 0x6b, 0x75, 0x86, 0x3d, 0x52, 0x3c, 0xf2, 0x3d,
  0x4f, 0xed, 0xdd, 0x3d, 0xa9, 0xdd, 0xfb, 0x3d, 0xeb, 0xda, 0x3a, 0xbd,
  0x98, 0x89, 0x6e, 0x3d, 0x08, 0xa6, 0x3d, 0x3e, 0xad, 0xd0, 0x2f, 0x3d,
  0x9f, 0x08, 0x84, 0x3d, 0x1b, 0x87, 0xfb, 0x3d, 0x6c, 0x1f, 0x04, 0xbd,
  0x90, 0x58, 0x55, 0x3d, 0x17, 0x1a, 0xa2, 0x3c, 0xea, 0x2a, 0x7f, 0x3d,
  0xf6, 0x51, 0xa2, 0xbc, 0xe8, 0x1b, 0x24, 0xbc, 0xdd, 0xe0, 0x99, 0xbc,
  0xa5, 0x49, 0x49, 0xbe, 0xdc, 0x46, 0x52, 0xbe, 0xbe, 0x72, 0x1b, 0xbe,
  0xa4, 0xf7, 0x84, 0xbd, 0x7f, 0x96, 0x08, 0xbe, 0x07, 0x55, 0x75, 0x3c,
  0xd2, 0x67, 0x26, 0x3d, 0x9f, 0xc9, 0x0a, 0x3e, 0xdd, 0x1e, 0x0c, 0xbd,
  0x95, 0x8c, 0x08, 0x3e, 0xca, 0xb5, 0x85, 0x3d, 0x5b, 0x45, 0x20, 0x3d,
  0x80, 0x18, 0xf3, 0x3d, 0x17, 0xf1, 0x92, 0xbe, 0xc0, 0x93, 0x4f, 0x3e,
  0x24, 0x54, 0x63, 0x3d, 0x22, 0xb9, 0x69, 0xbe, 0x19, 0xeb, 0xe0, 0x3d,
  0xb9, 0xf4, 0xde, 0xbd, 0x6e, 0x32, 0x84, 0xbd, 0xcd, 0x99, 0xea, 0xbd,
  0x57, 0x0d, 0x56, 0xbd, 0x36, 0xe6, 0xa8, 0x3c, 0xc8, 0xec, 0xc3, 0xbc,
  0x09, 0xbe, 0xbd, 0x3d, 0xc7, 0x71, 0xbe, 0xbd, 0x13, 0x06, 0x24, 0xbe,
  0x53, 0x22, 0x3d, 0x3c, 0xec, 0x72, 0x5b, 0x3d, 0x10, 0xf7, 0x72, 0x3d,
  0xf8, 0x04, 0x0d, 0xbd, 0xad, 0x38, 0x2f, 0x3e, 0xaf, 0x96, 0xd4, 0xbd,
  0xe4, 0x8d, 0x16, 0xbe, 0x26, 0x72, 0x34, 0xbe, 0x27, 0xcc, 0x60, 0xbe,
  0x76, 0x63, 0xc3, 0x3d, 0xf0, 0xd9, 0xb1, 0xbd, 0xe6, 0x83, 0x7d, 0xbd,
  0x48, 0xa6, 0x46, 0x3d, 0x6c, 0x81, 0x5a, 0xbd, 0x9b, 0x20, 0x47, 0xbd,
  0x65, 0x89, 0x92, 0xbc, 0x80, 0x1b, 0x5f, 0x3b, 0x94, 0xb6, 0xf6, 0xbd,
  0x14, 0x98, 0x0b, 0x3e, 0xed, 0x17, 0xee, 0xbd, 0x46, 0xc5, 0x02, 0xbe,
  0x6d, 0x57, 0x13, 0xbd, 0x6a, 0xd0, 0x3f, 0xbe, 0x64, 0x94, 0xed, 0xbd,
  0xc4, 0x33, 0xd3, 0x3d, 0x21, 0x3b, 0x02, 0xbe, 0x3e, 0x10, 0x3e, 0xbe,
  0x71, 0x36, 0xf4, 0x3c, 0x7c, 0x0d, 0xdb, 0x3d, 0x61, 0xa4, 0x9e, 0xbd,
  0x5a, 0x6c, 0x8c, 0xbd, 0x2a, 0x63, 0x26, 0x3d, 0x4f, 0x3d, 0x02, 0x3d,
  0x05, 0xf9, 0xc5, 0x3d, 0xb8, 0x1b, 0x06, 0xbe, 0x61, 0x45, 0xc6, 0xbc,
  0xa1, 0x9f, 0x15, 0xbe, 0xb0, 0x05, 0x20, 0x3c, 0x3d, 0x7e, 0x70, 0xbd,
  0x65, 0x36, 0x7b, 0xbc, 0xf4, 0x96, 0x32, 0xbe, 0x3b, 0x92, 0x10, 0x3b,
  0x65, 0xb5, 0x3c, 0xbe, 0xee, 0x9b, 0xbf, 0x3d, 0x83, 0x5f, 0xf7, 0x3c,
  0x1e, 0xc6, 0x0f, 0x3e, 0x26, 0x53, 0x31, 0xbe, 0xae, 0x97, 0x8d, 0xbd,
  0x16, 0x47, 0x3d, 0xbe, 0xba, 0x35, 0x5a, 0x3c, 0x88, 0xc0, 0x1d, 0x3e,
  0x71, 0x87, 0xb2, 0x3d, 0xa6, 0x62, 0x8c, 0xbe, 0x13, 0x17, 0xef, 0xbd,
  0xbe, 0x46, 0x0e, 0xbd, 0x40, 0x84, 0x90, 0x3d, 0x12, 0x5c, 0x12, 0x3e,
  0xc9, 0x5c, 0x74, 0x3e, 0xa6, 0x91, 0x5a, 0x3e, 0xe5, 0xdb, 0xa8, 0xbd,
  0xef, 0x26, 0x65, 0x3e, 0x8f, 0x86, 0xec, 0x3c, 0xb6, 0x8d, 0x4a, 0x3d,
  0x67, 0xd8, 0x9d, 0x3d, 0x60, 0x52, 0x0e, 0x3e, 0x2c, 0x44, 0x53, 0xbe,
  0x93, 0x89, 0x84, 0x3e, 0xf2, 0xf8, 0x59, 0xbd, 0xf0, 0x9a, 0x36, 0xbe,
  0x5f, 0xf2, 0x89, 0xbd, 0x5a, 0x14, 0x00, 0xbe, 0x5d, 0x86, 0x82, 0xbe,
  0x51, 0x82, 0x11, 0x3c, 0xfa, 0x85, 0xd5, 0xbd, 0xe9, 0x54, 0x08, 0x3e,
  0xd0, 0xc1, 0xa5, 0x3d, 0x38, 0x69, 0xbd, 0x3d, 0x34, 0x20, 0x2c, 0xbe,
  0x0f, 0x7d, 0x2a, 0xbd, 0xd6, 0x7a, 0x55, 0xbe, 0x72, 0x10, 0x10, 0xbc,
  0x4b, 0x1e, 0x23, 0x3c, 0x47, 0x4b, 0x65, 0x3d, 0xea, 0x88, 0x57, 0x3e,
  0x41, 0x49, 0x8a, 0x3d, 0x4f, 0xd4, 0x89, 0x3d, 0xcf, 0xf3, 0x97, 0x3d,
  0x0c, 0x70, 0xb3, 0xbc, 0x7a, 0x53, 0xaf, 0x3c, 0x62, 0x72, 0x29, 0x3e,
  0xd8, 0x40, 0x5e, 0xbd, 0x83, 0xc0, 0xca, 0xbc, 0xeb, 0x7f, 0xbb, 0x3c,
  0x77, 0xfa, 0x96, 0x3d, 0x18, 0xc3, 0x20, 0xbd, 0xdc, 0xd4, 0x41, 0xbc,
  0x9d, 0x54, 0x47, 0xbe, 0x54, 0x9c, 0xed, 0x3d, 0x6c, 0x99, 0xcb, 0xbd,
  0x8b, 0x22, 0xf7, 0xbd, 0xfd, 0xcf, 0x2e, 0x3d, 0x59, 0x99, 0x2c, 0x3d,
  0x2e, 0x8c, 0xc5, 0x3d, 0x47, 0x86, 0xab, 0x3d, 0xc0, 0xe2, 0x88, 0x3d,
  0x5d, 0x20, 0x0c, 0xbe, 0x1b, 0x57, 0x07, 0xbd, 0x52, 0x88, 0x40, 0x3e,
  0x4c, 0x1e, 0x30, 0x3d, 0xa4, 0x89, 0xf2, 0xbd, 0x32, 0x88, 0x4e, 0xbe,
  0xb3, 0x82, 0x1d, 0xbe, 0xaf, 0x56, 0x58, 0xbd, 0x6d, 0x0e, 0x0c, 0x3e,
  0x9b, 0x87, 0x69, 0x3e, 0xdb, 0x39, 0x55, 0x3e, 0x3a, 0x6a, 0x03, 0x3d,
  0xa4, 0xdd, 0xb7, 0x3d, 0x98, 0x3f, 0x4f, 0x3e, 0x4b, 0x8a, 0x67, 0xbe,
  0x4d, 0x0b, 0x94, 0x3c, 0xb9, 0xda, 0x1e, 0xbe, 0x4b, 0x30, 0x8b, 0x3d,
  0x4b, 0x8f, 0x19, 0x3e, 0x23, 0xc5, 0x5f, 0xbe, 0x67, 0x7d, 0xfd, 0x3d,
  0x48, 0x71, 0x20, 0xba, 0xee, 0x15, 0x54, 0xbe, 0x5c, 0xc8, 0x87, 0xbc,
  0x98, 0xb4, 0x48, 0xbb, 0xa5, 0x3d, 0x43, 0x3d, 0x1e, 0x25, 0xf5, 0x3c,
  0x60, 0x96, 0x01, 0x3d, 0x3d, 0x8c, 0xd6, 0xbd, 0xea, 0x36, 0xd2, 0x3d,
  0x6a, 0x1a, 0x40, 0x3e, 0x07, 0xd6, 0x01, 0xbe, 0xc6, 0xfa, 0xa9, 0x3d,
  0xbb, 0x76, 0x02, 0xbe, 0x5a, 0x68, 0x69, 0x3d, 0x62, 0xf1, 0x08, 0xbe,
  0xf9, 0xe1, 0xc2, 0xbd, 0xb3, 0x45, 0xcb, 0x3c, 0xe8, 0x8e, 0xfd, 0x3d,
  0x0b, 0x35, 0x52, 0x3d, 0x5b, 0xab, 0xc6, 0x3a, 0x28, 0xd6, 0x4e, 0x3e,
  0x0e, 0x0b, 0x55, 0xbd, 0xee, 0x20, 0x2f, 0xbd, 0xa5, 0xd3, 0x27, 0xbe,
  0x24, 0x3e, 0x82, 0xbc, 0x5c, 0x5f, 0x62, 0x3e, 0x9d, 0x07, 0x5e, 0xbd,
  0x8a, 0xc9, 0xd9, 0x3c, 0xd2, 0x3a, 0x58, 0x3c, 0x06, 0xcf, 0x1e, 0xbd,
  0x4c, 0xa9, 0x22, 0xbe, 0x84, 0xa3, 0x82, 0x3e, 0xf5, 0x49, 0x1a, 0xbe,
  0x1c, 0xce, 0x70, 0x3e, 0x9b, 0x59, 0xdb, 0xbc, 0xf7, 0x43, 0xe6, 0xbb,
  0xf3, 0xe9, 0x84, 0xbd, 0x64, 0x5a, 0x71, 0x3d, 0x83, 0x65, 0x85, 0x3e,
  0x36, 0x82, 0x81, 0xbd, 0xd9, 0xf1, 0x06, 0xbe, 0x20, 0x5a, 0xfa, 0xbd,
  0xd6, 0xe6, 0x11, 0xbe, 0xc6, 0x7e, 0xce, 0x3d, 0xdc, 0x14, 0xc4, 0xbc,
  0xae, 0xba, 0xe0, 0xbc, 0xf5, 0x41, 0xa0, 0x3d, 0x51, 0xff, 0x80, 0x3e,
  0xe8, 0x2d, 0x97, 0x3c, 0x2f, 0x09, 0x79, 0xbd, 0xc5, 0xdc, 0x2a, 0x3e,
  0x57, 0x88, 0x99, 0x3d, 0x63, 0x67, 0x3c, 0xbd, 0x63, 0x20, 0x0d, 0xbe,
  0xcf, 0x23, 0x83, 0xbd, 0xee, 0x5b, 0x82, 0xbe, 0xa1, 0x60, 0xdb, 0xbc,
  0x33, 0x9f, 0x26, 0xbe, 0x8a, 0x96, 0xdf, 0xbd, 0x27, 0xa3, 0x5f, 0x3d,
  0xc3, 0x45, 0x99, 0xbd, 0xcd, 0x89, 0x1b, 0x3e, 0x2c, 0x03, 0xb6, 0xbc,
  0x22, 0x49, 0xbf, 0x3d, 0xf2, 0xdf, 0xfb, 0x3d, 0xa9, 0x53, 0x43, 0xbd,
  0x73, 0x24, 0x29, 0x3d, 0x0c, 0x3c, 0xd5, 0x3d, 0x5f, 0x8f, 0x90, 0x3d,
  0x0a, 0x51, 0xc5, 0xbd, 0xf2, 0x00, 0x57, 0xbd, 0x2f, 0xa2, 0xee, 0x3d,
  0xd7, 0x43, 0x73, 0x3e, 0xe9, 0x8f, 0x9a, 0xbe, 0x58, 0xe4, 0x32, 0xbe,
  0xa1, 0x95, 0x51, 0xbe, 0xb7, 0x90, 0x53, 0xbe, 0x54, 0xb7, 0x5c, 0x3d,
  0x81, 0x18, 0x23, 0xbe, 0x9a, 0x54, 0xda, 0xbd, 0xdf, 0xdc, 0x51, 0xbc,
  0x53, 0x27, 0x74, 0x3d, 0xb6, 0x0f, 0x81, 0xbd, 0x37, 0x47, 0x15, 0xbc,
  0x9c, 0x96, 0x44, 0x3d, 0x75, 0x25, 0x44, 0xbe, 0xe0, 0xc9, 0xa6, 0x3d,
  0x92, 0x55, 0x69, 0xbe, 0x9f, 0xfa, 0x01, 0x3e, 0x13, 0x99, 0xe8, 0xbd,
  0xc2, 0x40, 0xf1, 0xbd, 0xf8, 0xa1, 0x2d, 0xbd, 0xd6, 0xcf, 0x82, 0xbd,
  0x64, 0x46, 0x1d, 0x3e, 0x74, 0x51, 0x1a, 0xbe, 0x93, 0x40, 0x6b, 0x3e,
  0x80, 0xa6, 0x4e, 0x3e, 0x43, 0x28, 0xe4, 0x3d, 0x13, 0xfa, 0x3e, 0x3d,
  0xaa, 0x33, 0xdf, 0x3c, 0x28, 0x3b, 0xe2, 0x3c, 0xa6, 0xb2, 0x5a, 0xbd,
  0xfe, 0xb8, 0x1c, 0x3e, 0x68, 0x3d, 0x42, 0xbe, 0x82, 0x28, 0x49, 0x3e,
  0x90, 0xb7, 0x00, 0x3d, 0xd9, 0xbf, 0x23, 0xbe, 0x43, 0x67, 0xbb, 0x3d,
  0xbc, 0x8b, 0xfa, 0xbd, 0x2b, 0x90, 0xae, 0xbd, 0x5d, 0xe0, 0x2a, 0xbe,
  0x92, 0xe1, 0xf7, 0xbb, 0x73, 0xc2, 0xde, 0x3d, 0x0e, 0x73, 0x7d, 0x3e,
  0x8f, 0x22, 0xf2, 0xbd, 0xa2, 0x46, 0x3f, 0x3e, 0x05, 0xb1, 0x89, 0xbe,
  0x44, 0xc1, 0x42, 0x3d, 0xf3, 0x20, 0x11, 0xbe, 0xfa, 0x93, 0xdd, 0xbd,
  0x4e, 0x59, 0x1d, 0xbe, 0x24, 0x00, 0x7d, 0xbe, 0x39, 0xc0, 0x5e, 0xbd,
  0x8a, 0xd7, 0x9c, 0xbc, 0xe1, 0xaa, 0x9b, 0xbd, 0xa2, 0xed, 0x31, 0x3c,
  0xb3, 0xbc, 0x2e, 0x3d, 0xc6, 0x9a, 0x2f, 0x3c, 0xa1, 0xcf, 0x45, 0xbd,
  0x4b, 0x66, 0x84, 0x3d, 0x81, 0x88, 0xfd, 0xbd, 0x3c, 0x5f, 0x33, 0x3e,
  0xa2, 0x57, 0xf4, 0x3d, 0xf4, 0x2b, 0x49, 0x3e, 0xd5, 0x81, 0x5e, 0xbd,
  0x3e, 0x2b, 0x4c, 0x3e, 0x22, 0x3f, 0xb0, 0x3d, 0x3f, 0x38, 0x0a, 0x3e,
  0xa0, 0xdb, 0xc8, 0xbd, 0x0a, 0xda, 0x56, 0xbc, 0x1b, 0x6f, 0x91, 0xbd,
  0x9c, 0x64, 0x05, 0x3e, 0x26, 0x6a, 0x56, 0x3c, 0x57, 0xc2, 0xf4, 0xbd,
  0x2c, 0xf4, 0xe4, 0xbd, 0x59, 0x0c, 0xe2, 0x3d, 0x6f, 0x94, 0x24, 0xbb,
  0x1e, 0x08, 0xeb, 0xbd, 0x7e, 0xb7, 0x62, 0xbd, 0x8a, 0xfd, 0x1e, 0x3a,
  0xb4, 0x26, 0x77, 0x3e, 0xb3, 0xa0, 0xc9, 0x3c, 0xa0, 0x81, 0x07, 0xbe,
  0x08, 0x0e, 0x5f, 0xbc, 0x22, 0xbd, 0x39, 0xbd, 0x80, 0x0e, 0xd1, 0x3d,
  0x99, 0xf9, 0x6b, 0x3e, 0x10, 0x23, 0xc3, 0xbd, 0x52, 0xc1, 0x8d, 0xbe,
  0x24, 0xa6, 0x0d, 0xbd, 0xda, 0x49, 0x93, 0xbd, 0x56, 0x26, 0x1a, 0xbe,
  0x46, 0x68, 0x60, 0x3d, 0x65, 0x2c, 0xb5, 0xbd, 0xf8, 0xac, 0xb6, 0xbd,
  0xd9, 0xf8, 0x1b, 0xbe, 0x1c, 0x9d, 0xf4, 0xbd, 0x7d, 0xa6, 0x65, 0x3e,
  0x41, 0x4c, 0x17, 0x3d, 0x32, 0x60, 0x46, 0xbe, 0x06, 0x06, 0x8a, 0xbe,
  0x90, 0xa3, 0x8d, 0x3e, 0x0e, 0x6c, 0x3d, 0xbd, 0x30, 0x69, 0xa0, 0xbd,
  0x61, 0xd5, 0x17, 0xbe, 0x1a, 0x18, 0x38, 0xbe, 0x81, 0x8f, 0x7d, 0x3d,
  0x04, 0xf7, 0x8d, 0xbc, 0xf5, 0xb0, 0x9c, 0xbd, 0x1b, 0x3c, 0x66, 0xbe,
  0x99, 0xbd, 0x51, 0xbd, 0xb1, 0x95, 0x35, 0xbc, 0xb7, 0xc5, 0x42, 0x3d,
  0x13, 0x9c, 0x59, 0x3b, 0xe3, 0x43, 0xfa, 0xbd, 0xaf, 0x94, 0xde, 0xbd,
  0xee, 0x25, 0x0b, 0xbe, 0x9a, 0x7f, 0xfc, 0xbd, 0x5c, 0x4e, 0xc7, 0xbd,
  0xc1, 0x76, 0x24, 0xbd, 0x93, 0xbe, 0xb7, 0xbb, 0x02, 0xdd, 0x07, 0xbe,
  0xe1, 0x30, 0x0f, 0x3d, 0xdd, 0x07, 0x7c, 0xbd, 0xab, 0x51, 0x0e, 0x3b,
  0xe2, 0x78, 0xb7, 0xbc, 0x39, 0x48, 0x81, 0x3d, 0x0b, 0x84, 0xc9, 0x3d,
  0xb7, 0x3f, 0x3a, 0x3e, 0x30, 0x18, 0xfa, 0x3d, 0x34, 0x8f, 0xb9, 0xbd,
  0xc1, 0x5f, 0x3a, 0xbe, 0x97, 0x8e, 0xac, 0x3e, 0x4f, 0x52, 0x56, 0xbe,
  0x1c, 0x70, 0x7e, 0xbd, 0xd9, 0x12, 0x27, 0x3e, 0xf5, 0x2a, 0x27, 0xbd,
  0x3c, 0x92, 0x7e, 0xbd, 0x9f, 0x03, 0x7d, 0x3d, 0x7a, 0xc4, 0x44, 0xbe,
  0x74, 0x3e, 0xe1, 0xbd, 0x71, 0x97, 0x50, 0x3c, 0x66, 0x90, 0x21, 0x3e,
  0x4c, 0x77, 0x74, 0x3b, 0x9a, 0xd3, 0x19, 0xbe, 0x57, 0x27, 0x11, 0xbe,
  0x9b, 0x95, 0x2b, 0x3e, 0xaf, 0x0c, 0x6e, 0x3e, 0xa9, 0x43, 0x4b, 0x3d,
  0xf4, 0xa8, 0x9d, 0xbd, 0x27, 0xd8, 0xf6, 0x3c, 0x68, 0xdd, 0xfb, 0x3d,
  0x3e, 0x67, 0x72, 0x3d, 0x6a, 0x13, 0x8d, 0x3d, 0x21, 0x98, 0xae, 0xbd,
  0x58, 0x0b, 0xf0, 0xbc, 0x85, 0x0f, 0xe9, 0x3d, 0xc3, 0xf7, 0xd4, 0x3d,
  0xa0, 0x57, 0x58, 0x3e, 0x73, 0x20, 0x0e, 0x3c, 0x3f, 0xe7, 0xe8, 0x3d,
  0xdc, 0x4d, 0x45, 0x3e, 0x5c, 0xab, 0xb4, 0xbd, 0x02, 0xb9, 0x91, 0xbd,
  0x2e, 0x30, 0xc0, 0xbd, 0xb3, 0x59, 0x06, 0x3b, 0x53, 0xe9, 0x8a, 0x3d,
  0x82, 0x49, 0xa2, 0x3d, 0x96, 0x06, 0xe7, 0xbd, 0xb2, 0xfb, 0x6d, 0x3e,
  0x70, 0xd5, 0x1b, 0x3e, 0x47, 0xc0, 0xb7, 0x3c, 0xbc, 0xcd, 0xca, 0x3d,
  0xa1, 0xc1, 0xa8, 0xbc, 0xcd, 0x2a, 0xa8, 0xbd, 0xaf, 0xa6, 0x86, 0x3d,
  0x8e, 0x4e, 0x94, 0x3d, 0x7b, 0xa5, 0x46, 0x3e, 0x94, 0xb8, 0x47, 0x3e,
  0x6f, 0x02, 0x37, 0x3e, 0x80, 0x80, 0xfd, 0xbd, 0xb0, 0x9b, 0xc8, 0x3d,
  0xa0, 0x13, 0xe8, 0x3d, 0x46, 0x97, 0x09, 0x3e, 0x6a, 0xad, 0x2c, 0x3e,
  0xb9, 0x9d, 0x30, 0x3e, 0xaa, 0x0d, 0x12, 0x3e, 0x33, 0x2b, 0x6d, 0xbd,
  0x89, 0xe7, 0x4c, 0x3d, 0xa5, 0x19, 0xa1, 0xbd, 0x48, 0x5d, 0x14, 0x3e,
  0x26, 0xd6, 0x30, 0xbd, 0x16, 0xcb, 0x1d, 0xbe, 0x48, 0x92, 0x32, 0xbd,
  0x80, 0x15, 0x94, 0x3d, 0x3a, 0xc7, 0xad, 0x3b, 0x21, 0xf7, 0x21, 0xbd,
  0x1f, 0xe4, 0xd9, 0xbc, 0x32, 0xcc, 0x0f, 0x3d, 0xac, 0xea, 0x3d, 0xbe,
  0xb4, 0xcf, 0x34, 0x3d, 0x98, 0x51, 0x52, 0x3d, 0x52, 0x75, 0xe4, 0xbd,
  0x21, 0x6b, 0x01, 0xbe, 0x4d, 0xe4, 0xa2, 0x3c, 0xe4, 0x14, 0x2c, 0xbe,
  0x95, 0x0a, 0x82, 0x3d, 0x6c, 0xed, 0x51, 0x3d, 0xfa, 0x25, 0x35, 0xbe,
  0x94, 0x1c, 0xb8, 0x3d, 0xa0, 0x78, 0x50, 0xbe, 0x6a, 0x02, 0x8e, 0xbd,
  0x10, 0xd3, 0xa3, 0xbd, 0xaa, 0x0f, 0x81, 0x3c, 0x6b, 0x27, 0x32, 0xbd,
  0xb7, 0xe3, 0x13, 0xbe, 0xfc, 0x90, 0xf7, 0xbd, 0x1f, 0x49, 0x6d, 0xbe,
  0x02, 0xd8, 0xb7, 0xbd, 0x2c, 0x00, 0x4f, 0x3e, 0x83, 0x93, 0x99, 0xbe,
  0x46, 0x90, 0x38, 0x3e, 0xed, 0x14, 0xf3, 0xbd, 0x17, 0x21, 0x59, 0xbe,
  0x8d, 0x18, 0x7b, 0xbc, 0x6b, 0x97, 0x98, 0xbc, 0xb0, 0xe9, 0x21, 0x3d,
  0x73, 0x08, 0x36, 0xbe, 0xfc, 0xd0, 0xd7, 0xbd, 0x8d, 0xc8, 0xc4, 0xbd,
  0x06, 0x8e, 0x29, 0xbe, 0x78, 0xf4, 0xb6, 0xbd, 0xfa, 0xa3, 0x67, 0x3d,
  0x0b, 0x4a, 0xde, 0xbd, 0xc3, 0xae, 0x05, 0xbe, 0xec, 0x0d, 0x69, 0xbd,
  0x05, 0x59, 0xa0, 0x3d, 0x53, 0x1a, 0x0d, 0x3e, 0x62, 0xfc, 0xe5, 0xbd,
  0xc2, 0xf1, 0x84, 0x3d, 0x43, 0x24, 0x23, 0xbd, 0x73, 0xc2, 0x10, 0xbe,
  0x85, 0xf5, 0x7e, 0xbe, 0x52, 0x89, 0x52, 0xbd, 0xbb, 0xed, 0xff, 0xbd,
  0x2c, 0x78, 0x60, 0xbe, 0xeb, 0x76, 0x13, 0xbd, 0x19, 0xd3, 0x5d, 0x3d,
  0x01, 0xbb, 0x08, 0x3e, 0x7e, 0xeb, 0x95, 0x3d, 0x54, 0xf6, 0x49, 0xbd,
  0xb8, 0xed, 0x82, 0xbe, 0xb5, 0x36, 0x9a, 0x3d, 0x77, 0xbf, 0x2a, 0xbe,
  0x0c, 0x82, 0x54, 0x3d, 0x17, 0x19, 0x2c, 0x3e, 0x49, 0xc1, 0x04, 0xbe,
  0x23, 0xc5, 0x44, 0xbe, 0xca, 0x7c, 0x71, 0x3e, 0x3a, 0xf7, 0x39, 0xbe,
  0xe8, 0x44, 0x24, 0xbd, 0x25, 0xce, 0x25, 0x3e, 0x82, 0xa8, 0x0e, 0xbd,
  0x57, 0x69, 0x15, 0x3e, 0x6d, 0xae, 0x53, 0x3d, 0x4f, 0xe2, 0xb8, 0xbd,
  0xc7, 0x99, 0x0d, 0xbe, 0x4e, 0xe7, 0x56, 0xbe, 0x12, 0x0a, 0x12, 0xbb,
  0x63, 0xa6, 0x7f, 0xbd, 0x98, 0xbf, 0x24, 0xbe, 0xf4, 0x12, 0xbd, 0xbd,
  0x7c, 0x82, 0x71, 0x3d, 0xfd, 0x03, 0x87, 0x3e, 0xa1, 0x6f, 0x04, 0xbe,
  0x69, 0x5c, 0xef, 0x3c, 0x99, 0x44, 0x9e, 0xbd, 0xa8, 0x51, 0x2c, 0xbe,
  0x2c, 0x0f, 0x8f, 0x3d, 0xc9, 0xf7, 0x5c, 0x3e, 0xa6, 0x13, 0x47, 0xbe,
  0x08, 0xf4, 0x8f, 0x3d, 0xa9, 0x71, 0x0f, 0xbe, 0xb6, 0x5a, 0x8a, 0xbd,
  0xa7, 0x1b, 0x49, 0x3e, 0x49, 0x67, 0x6a, 0x3e, 0x66, 0x30, 0x09, 0xbe,
  0xd1, 0xa7, 0x49, 0xbe, 0xf9, 0xf1, 0xda, 0x3c, 0xcb, 0x8b, 0x72, 0xbd,
  0x04, 0x67, 0xe8, 0x3d, 0xbe, 0x54, 0x92, 0xbc, 0x5e, 0x77, 0x11, 0xbe,
  0xaa, 0xd0, 0x67, 0xbd, 0xbe, 0x5f, 0xbc, 0xbd, 0x25, 0x6f, 0xda, 0xbc,
  0x5f, 0x14, 0x78, 0xbc, 0xe8, 0x7e, 0x7f, 0xbd, 0x0b, 0x12, 0xd4, 0xbd,
  0x8a, 0xa4, 0x85, 0xbd, 0x51, 0x57, 0x22, 0x3d, 0x4f, 0xcd, 0x8d, 0xbd,
  0xff, 0x4b, 0x60, 0xbc, 0x32, 0x0a, 0x97, 0xbe, 0xe8, 0x9a, 0x0a, 0xbe,
  0x43, 0x46, 0x27, 0xbe, 0xbf, 0xf3, 0xa5, 0xbe, 0x42, 0x79, 0x7e, 0xbd,
  0x91, 0xee, 0x46, 0x3d, 0xef, 0x77, 0x83, 0x3d, 0x72, 0xbf, 0x30, 0x3d,
  0xc9, 0x1c, 0xff, 0x3d, 0x6c, 0x77, 0x17, 0x3e, 0x8c, 0x40, 0xab, 0xbd,
  0x01, 0xa6, 0xa8, 0x3c, 0x6f, 0x5c, 0x1b, 0x3c, 0xcd, 0xf6, 0xc9, 0xbd,
  0x7d, 0xae, 0xce, 0x3d, 0x5d, 0x1a, 0xd3, 0xbd, 0xef, 0x44, 0x5a, 0x3d,
  0x13, 0xcc, 0x86, 0xbd, 0x5d, 0xf6, 0x3f, 0x3e, 0x68, 0xe5, 0x89, 0x3e,
  0x1b, 0x31, 0x03, 0x3e, 0xf7, 0x30, 0x74, 0x3d, 0x3a, 0xac, 0x65, 0xbe,
  0x89, 0x2f, 0x23, 0x3e, 0xea, 0x45, 0xa5, 0xbd, 0x53, 0x81, 0xd3, 0x3d,
  0xb6, 0x07, 0x0b, 0x3e, 0xfe, 0x7c, 0x82, 0x3d, 0x9c, 0xe4, 0x43, 0xbe,
  0x8a, 0x19, 0x41, 0x3e, 0x07, 0x77, 0x47, 0xbe, 0x59, 0x7d, 0xb6, 0x3d,
  0x46, 0xff, 0x59, 0xbe, 0xe2, 0x20, 0xbd, 0x3d, 0xea, 0x9b, 0x32, 0x3d,
  0x4f, 0x58, 0x1e, 0x3e, 0x64, 0xde, 0xba, 0x3d, 0x22, 0xf2, 0x36, 0xbd,
  0xd6, 0x6c, 0x9a, 0xbc, 0x94, 0x4f, 0x7f, 0xb8, 0x66, 0x79, 0x0c, 0x3e,
  0xcf, 0x53, 0xbc, 0xbc, 0x08, 0x33, 0x24, 0x39, 0x05, 0xae, 0xe6, 0xbd,
  0x35, 0xd2, 0x30, 0x3c, 0x18, 0x15, 0x09, 0x3e, 0x18, 0x70, 0x12, 0xbd,
  0xa6, 0x90, 0x9f, 0x3d, 0x17, 0x57, 0xd7, 0xbd, 0xbd, 0x6f, 0x11, 0xbd,
  0xa3, 0xf8, 0xa3, 0x3d, 0x08, 0xa3, 0x58, 0xbd, 0x6b, 0x9e, 0x1c, 0x3e,
  0x49, 0x26, 0x86, 0x3d, 0x53, 0x94, 0x8b, 0xbd, 0xc9, 0x81, 0x8f, 0xbd,
  0x73, 0xfc, 0x05, 0xbe, 0x35, 0x35, 0x06, 0x3d, 0x03, 0x2c, 0x8a, 0xbd,
  0xae, 0xb5, 0x5c, 0x3d, 0x56, 0x9b, 0x82, 0x3e, 0x2b, 0x42, 0x99, 0x3d,
  0x9f, 0x90, 0x8c, 0xbc, 0x5d, 0x54, 0x5d, 0x3e, 0x70, 0x1a, 0x31, 0x3e,
  0xfa, 0x16, 0xcf, 0xbc, 0x14, 0x27, 0xfd, 0x3b, 0x1a, 0xb3, 0x29, 0xbd,
  0xa0, 0x1a, 0xa7, 0xbd, 0xcc, 0xe3, 0x27, 0x3c, 0x5f, 0x44, 0x0b, 0x3e,
  0x87, 0xe0, 0xaa, 0x3c, 0x2f, 0x8a, 0x5d, 0xbe, 0x00, 0xc5, 0x41, 0x3e,
  0x23, 0x3d, 0x89, 0xbd, 0x9e, 0x62, 0xef, 0xbd, 0x50, 0x73, 0xdb, 0xbd,
  0xbd, 0x67, 0x4b, 0x3d, 0xe6, 0xb4, 0x22, 0xbd, 0xaf, 0xce, 0x17, 0x3e,
  0xe0, 0x45, 0x08, 0x3e, 0x61, 0xc4, 0x99, 0x3c, 0xb7, 0x92, 0x59, 0x3e,
  0x23, 0xe4, 0xb0, 0xbd, 0x9f, 0x56, 0x9b, 0xbd, 0x7e, 0x5c, 0x34, 0x3e,
  0x19, 0x15, 0x43, 0xbe, 0xc9, 0x34, 0x10, 0x3e, 0x59, 0x71, 0x17, 0xbe,
  0xc0, 0x8b, 0x0d, 0x3e, 0x8c, 0x98, 0x3e, 0x3e, 0xd3, 0x31, 0x3c, 0xbe,
  0xa6, 0xa8, 0x24, 0x3e, 0x17, 0xbf, 0x37, 0x3e, 0x97, 0x2c, 0x02, 0x3d,
  0xb9, 0x91, 0x2a, 0xbe, 0xfd, 0x73, 0x91, 0x3d, 0x75, 0xdd, 0x0b, 0xbd,
  0xaa, 0x2d, 0x0a, 0x3e, 0xfa, 0x84, 0xad, 0x3c, 0xbc, 0xc2, 0xb1, 0xbd,
  0xc8, 0x78, 0xdf, 0x3d, 0x5e, 0x21, 0xf2, 0xbd, 0xd8, 0xbf, 0x8f, 0xbd,
  0xf1, 0xc6, 0xb2, 0x3c, 0x11, 0x52, 0x34, 0x3d, 0x5d, 0x30, 0xf8, 0xbd,
  0x6d, 0x0e, 0x8b, 0xbc, 0x0e, 0x19, 0x17, 0xbe, 0x7d, 0x0c, 0x8f, 0x3d,
  0xda, 0x1f, 0x46, 0x3b, 0xbd, 0xf7, 0x27, 0xbd, 0x10, 0xde, 0x16, 0x3d,
  0x94, 0x6a, 0x81, 0xbd, 0x2b, 0xdf, 0x02, 0x3e, 0xbb, 0x9e, 0x7a, 0xbd,
  0xe2, 0x35, 0x1e, 0x3d, 0x5e, 0x6b, 0x32, 0xbe, 0xbf, 0xdf, 0xa4, 0x3d,
  0xdb, 0x45, 0x0c, 0xbd, 0x0e, 0xd6, 0x71, 0x3d, 0x86, 0x20, 0x0e, 0x3e,
  0x2c, 0x65, 0x10, 0x3e, 0x5e, 0x03, 0x6a, 0x3d, 0x26, 0x33, 0x0c, 0x3e,
  0xa1, 0xf7, 0x16, 0x3e, 0x06, 0x30, 0xc0, 0xbd, 0x9a, 0xf1, 0x04, 0x3e,
  0x39, 0xe3, 0x17, 0x3c, 0x11, 0x03, 0x6d, 0xbd, 0x2b, 0x30, 0x6b, 0x3e,
  0x32, 0xbb, 0x3e, 0x3e, 0x9c, 0x64, 0xa3, 0x3b, 0x3e, 0x3e, 0x96, 0x3d,
  0xcb, 0x51, 0x5c, 0x3e, 0x82, 0x80, 0xf1, 0x3d, 0xaa, 0x50, 0x09, 0x3d,
  0xe6, 0x5c, 0x8e, 0xbb, 0x64, 0xf0, 0x54, 0xbd, 0x74, 0x4a, 0x0a, 0x3e,
  0x8d, 0x4c, 0x15, 0xbe, 0x74, 0x67, 0xc3, 0x3d, 0x62, 0x49, 0x67, 0x3e,
  0xcc, 0xce, 0x99, 0xbd, 0x26, 0x4a, 0xf7, 0xbc, 0x94, 0xf4, 0x2d, 0xbe,
  0xd4, 0x6f, 0x44, 0xbe, 0xab, 0x36, 0x23, 0xbe, 0xbc, 0xce, 0x9f, 0x3d,
  0xd0, 0x2d, 0x37, 0x3e, 0x3a, 0xe0, 0xa8, 0x3d, 0xcf, 0x3d, 0x17, 0x3e,
  0x0e, 0x23, 0xe9, 0x3d, 0x0d, 0x79, 0xa8, 0x3c, 0xf3, 0x4a, 0x28, 0xbe,
  0xc1, 0xe7, 0xf1, 0x3c, 0x20, 0xac, 0x53, 0x3d, 0x15, 0xbf, 0x6b, 0xbd,
  0x7b, 0xb8, 0x4c, 0xbe, 0xe2, 0x83, 0xaf, 0xbd, 0x23, 0x2d, 0x38, 0xbd,
  0xca, 0x35, 0xef, 0x3d, 0xae, 0xab, 0x4d, 0x3e, 0xee, 0xa6, 0xdb, 0xbc,
  0xe6, 0xb9, 0x0b, 0x3c, 0x37, 0x77, 0xb9, 0x3d, 0x11, 0x18, 0x6d, 0xbe,
  0x85, 0x76, 0x5c, 0xbb, 0xcc, 0x3c, 0xc5, 0x3d, 0x8c, 0x16, 0x61, 0x3d,
  0x60, 0x10, 0x3f, 0x3e, 0x4f, 0x03, 0x8c, 0x3d, 0x21, 0xbf, 0x02, 0x3e,
  0x6f, 0xb2, 0x36, 0xbc, 0x72, 0x0f, 0x1b, 0x3e, 0xd6, 0x44, 0x4f, 0xbe,
  0x83, 0x64, 0xbd, 0xbd, 0x4e, 0x78, 0xc0, 0xbd, 0x33, 0x8e, 0x50, 0x3c,
  0xe8, 0xa7, 0xf5, 0xbd, 0x0c, 0xe9, 0x6f, 0x3c, 0x54, 0xe6, 0x22, 0xbe,
  0x8a, 0x47, 0x3a, 0xbe, 0xb6, 0xc2, 0x2e, 0xbe, 0xfe, 0x67, 0x72, 0x3e,
  0x4d, 0xfc, 0xfd, 0xbd, 0x69, 0xae, 0x07, 0xbe, 0xe1, 0x0e, 0x22, 0x3c,
  0xe7, 0x99, 0x6d, 0x3e, 0x5b, 0x2b, 0x58, 0x3d, 0xdf, 0xd1, 0x77, 0xbd,
  0x50, 0x01, 0x11, 0xbc, 0x66, 0x8b, 0xee, 0xbd, 0xa2, 0x7e, 0xd1, 0x3c,
  0xa4, 0xf7, 0x83, 0x3d, 0xe8, 0xd2, 0x89, 0xbd, 0x15, 0x99, 0xe3, 0xbc,
  0xae, 0x0c, 0x0b, 0xbb, 0x0a, 0x1f, 0x06, 0x3d, 0xb8, 0x44, 0x70, 0xbc,
  0xca, 0x57, 0x11, 0xbe, 0x39, 0x9c, 0x40, 0x3d, 0x7d, 0x96, 0x17, 0xbe,
  0xae, 0xe3, 0xfc, 0xbd, 0x2b, 0x09, 0x6e, 0xbe, 0xec, 0xfc, 0x2d, 0x3d,
  0x61, 0x5e, 0xec, 0xbd, 0x21, 0x78, 0xee, 0xbd, 0x57, 0xad, 0xca, 0xbd,
  0xf7, 0x96, 0xe9, 0xbd, 0x53, 0x4c, 0x07, 0x3e, 0xe7, 0x97, 0xf8, 0xbb,
  0x05, 0x56, 0x93, 0xbd, 0x9e, 0x79, 0x94, 0xbc, 0x53, 0x02, 0x0d, 0xbe,
  0x70, 0x30, 0x72, 0xbd, 0x14, 0x28, 0xab, 0xbd, 0xaf, 0x9f, 0xe5, 0x3c,
  0x10, 0x55, 0x07, 0x3d, 0x3a, 0xfd, 0xda, 0xbd, 0xbf, 0x24, 0x64, 0x3d,
  0xb8, 0xb1, 0x59, 0x3d, 0x4c, 0xd2, 0x9c, 0x3d, 0xf2, 0x47, 0x1e, 0xbe,
  0xbb, 0xc6, 0x99, 0xbd, 0xe2, 0x41, 0x64, 0x3e, 0x0e, 0x6e, 0xad, 0x3c,
  0xd4, 0x66, 0x2e, 0x3d, 0x21, 0x95, 0x00, 0xbe, 0x77, 0x5e, 0x7d, 0xbc,
  0xb6, 0x6f, 0x56, 0x3e, 0xdc, 0x57, 0x1e, 0xbc, 0xfd, 0xc9, 0xc0, 0x3d,
  0x4d, 0x8f, 0xfb, 0x3d, 0xd1, 0xf8, 0x5c, 0xbe, 0x9b, 0x66, 0x1a, 0xbd,
  0xbd, 0xea, 0x3b, 0x3d, 0x78, 0xc7, 0xb4, 0x3d, 0x2b, 0x28, 0x3f, 0xbd,
  0xb9, 0x57, 0xdb, 0x3c, 0x0f, 0xa6, 0x97, 0x3c, 0xbd, 0x78, 0x49, 0x3e,
  0xb4, 0x8e, 0x9d, 0x3d, 0x74, 0x8a, 0x15, 0xbe, 0x7b, 0x03, 0xf5, 0x3d,
  0x21, 0x8e, 0x21, 0xbe, 0x77, 0x16, 0x29, 0xbd, 0xee, 0x7b, 0x03, 0xbe,
  0xd7, 0xdd, 0xb0, 0x3d, 0x99, 0x53, 0x0a, 0x3e, 0x95, 0xfa, 0x49, 0x3e,
  0xcb, 0x57, 0x1a, 0xbb, 0x06, 0x2e, 0x8c, 0xbd, 0x8b, 0x85, 0x02, 0x3d,
  0x85, 0x9d, 0xa1, 0x3d, 0x10, 0x60, 0xe7, 0xbd, 0xf0, 0x1a, 0x93, 0x3d,
  0x2b, 0x14, 0x48, 0x3e, 0xb7, 0x6e, 0x11, 0x3e, 0xe0, 0xe3, 0x2c, 0x3d,
  0x39, 0x7a, 0x50, 0xbc, 0xd7, 0x58, 0x47, 0xbd, 0x96, 0xfb, 0xfc, 0x3b,
  0x39, 0x70, 0x9a, 0x3d, 0xa5, 0xd7, 0xf5, 0xbd, 0x5d, 0x81, 0xea, 0xbd,
  0xfd, 0xa7, 0x0d, 0x3d, 0x8c, 0x9f, 0xa1, 0xbd, 0x67, 0x0e, 0x87, 0xbd,
  0x1a, 0xe7, 0x29, 0x3e, 0x99, 0x48, 0x8f, 0x3d, 0x70, 0xb6, 0x17, 0xbe,
  0x67, 0x37, 0x55, 0xbd, 0xaf, 0x77, 0x48, 0x3e, 0x96, 0xfe, 0xf5, 0x3d,
  0x14, 0x9f, 0xce, 0x3d, 0xdb, 0x55, 0x0e, 0xbe, 0x58, 0xa7, 0x43, 0x3d,
  0xf5, 0xdf, 0x0c, 0x3e, 0xb5, 0xf5, 0x1c, 0x3c, 0x5e, 0x33, 0x26, 0x3e,
  0x4e, 0x84, 0x63, 0x3e, 0x15, 0xc2, 0xe3, 0x3c, 0xe1, 0x9a, 0x47, 0x3e,
  0x7c, 0xe5, 0x20, 0x3e, 0x39, 0x99, 0x7e, 0xbd, 0x66, 0x21, 0x3a, 0x3e,
  0xc3, 0x71, 0x93, 0xbd, 0x03, 0x7b, 0x64, 0xbe, 0x38, 0x34, 0xad, 0xbd,
  0x9e, 0xfd, 0x05, 0x3e, 0x95, 0x1f, 0x36, 0xbe, 0x3c, 0x1c, 0x09, 0xbe,
  0x68, 0x92, 0x23, 0xbc, 0xa3, 0xe4, 0x10, 0x3d, 0x70, 0xca, 0x48, 0xbe,
  0x71, 0xc8, 0x1e, 0x3e, 0x83, 0x37, 0x23, 0x3c, 0x6b, 0x30, 0xce, 0xbd,
  0xc7, 0x7e, 0x60, 0xbe, 0x28, 0xf2, 0x16, 0xbe, 0x2b, 0x8c, 0x33, 0x3e,
  0x3d, 0x6a, 0xed, 0x3c, 0x1e, 0xef, 0x44, 0xba, 0x2b, 0xf5, 0x27, 0xbe,
  0x29, 0x90, 0x23, 0xbd, 0x9a, 0x79, 0x34, 0xbd, 0xbe, 0x56, 0x80, 0xbe,
  0x9c, 0xdc, 0xb0, 0x3c, 0x6e, 0xc0, 0x6b, 0x3e, 0xb3, 0x5d, 0x64, 0xbd,
  0xba, 0xf1, 0x2c, 0xbc, 0x50, 0x12, 0x93, 0xbd, 0x32, 0x8c, 0x84, 0xbd,
  0xdc, 0x02, 0xa5, 0x3d, 0x8d, 0x40, 0x02, 0x3e, 0x4a, 0xa8, 0x0c, 0xbd,
  0xe8, 0xbb, 0xe7, 0xbd, 0x45, 0xb8, 0x20, 0xbc, 0x6a, 0x32, 0x67, 0x3e,
  0xa4, 0xed, 0x35, 0x3e, 0xd6, 0xe3, 0x10, 0xbe, 0x08, 0x87, 0xc1, 0x3c,
  0xe9, 0x4b, 0x3b, 0xbe, 0x6c, 0xd3, 0x91, 0x3d, 0xba, 0x05, 0x01, 0xbe,
  0xc3, 0x0c, 0x6e, 0xbd, 0xad, 0x92, 0xf2, 0xbd, 0xa4, 0xca, 0x1a, 0x3d,
  0xf4, 0x06, 0x79, 0x3e, 0x8e, 0x71, 0x75, 0x3e, 0x40, 0x59, 0x0c, 0x3d,
  0xe5, 0x40, 0x0e, 0xbd, 0x5f, 0xaa, 0xd0, 0xbd, 0x44, 0x5f, 0xa0, 0x3d,
  0x3e, 0x36, 0x2e, 0x3e, 0xa1, 0x85, 0x1f, 0x3e, 0x90, 0xa6, 0x4a, 0x3e,
  0xea, 0xb6, 0x61, 0x3d, 0x25, 0xdb, 0x1b, 0xbe, 0xaa, 0xcb, 0x83, 0x3d,
  0x8f, 0xa1, 0x49, 0x3c, 0x30, 0x64, 0x7c, 0xbd, 0x4c, 0x6f, 0x26, 0xbe,
  0x4b, 0x73, 0x0d, 0xbe, 0x9b, 0x6a, 0xce, 0x3d, 0xc0, 0x0b, 0xba, 0x3c,
  0x55, 0x03, 0xf7, 0x3d, 0xfe, 0x1f, 0x3b, 0xbd, 0x07, 0xea, 0x04, 0x3e,
  0x40, 0x18, 0x46, 0xbc, 0xc2, 0xbe, 0x84, 0x3d, 0x49, 0x16, 0xe0, 0xbd,
  0xf0, 0xf9, 0x8e, 0xbd, 0xa7, 0x40, 0xf6, 0x3d, 0x06, 0xe3, 0x47, 0xbd,
  0xc3, 0x41, 0xe1, 0xbd, 0xbf, 0x1e, 0x29, 0xbe, 0x13, 0x39, 0x1d, 0xbe,
  0xf2, 0xbb, 0x33, 0xbc, 0x2e, 0x19, 0xc2, 0xbd, 0xb1, 0xbd, 0x23, 0x3e,
  0x54, 0x11, 0xc0, 0x3c, 0x5b, 0xe5, 0x05, 0x3d, 0xb8, 0x25, 0xf9, 0x3d,
  0x77, 0x26, 0xad, 0xbd, 0xe9, 0x05, 0xc2, 0x3d, 0xa2, 0xa4, 0x29, 0xbe,
  0x06, 0x79, 0x3e, 0xbe, 0x6f, 0xee, 0xe4, 0xbc, 0x4f, 0xe6, 0xc4, 0x3c,
  0x50, 0x53, 0x34, 0xbc, 0x41, 0xb9, 0xed, 0x3d, 0x0b, 0xa6, 0x3a, 0x3e,
  0x9a, 0x31, 0x33, 0xbe, 0x80, 0x9e, 0xe9, 0x3d, 0xa5, 0x40, 0xf2, 0xbd,
  0x78, 0x2e, 0xbf, 0x3d, 0x80, 0x77, 0x4f, 0x3c, 0x18, 0xef, 0xc4, 0x3d,
  0x82, 0xee, 0x5d, 0xbd, 0x50, 0x51, 0xca, 0xbc, 0xfa, 0x99, 0x03, 0x3e,
  0xae, 0xd8, 0x23, 0x3d, 0xbb, 0xdc, 0x97, 0x3c, 0xfb, 0x81, 0x10, 0x3e,
  0xf1, 0x01, 0x04, 0xbe, 0xbf, 0xe8, 0xb9, 0xbd, 0x4a, 0x25, 0x18, 0xbd,
  0x8b, 0x2c, 0x3f, 0x3d, 0xa9, 0xf5, 0x75, 0x3d, 0x79, 0x10, 0x54, 0xbe,
  0x11, 0x2c, 0xc8, 0xbc, 0xf9, 0x27, 0xbf, 0x3d, 0xa8, 0xb5, 0x72, 0xbd,
  0xe8, 0x19, 0x71, 0xbd, 0x8c, 0xc3, 0x0a, 0xbe, 0x25, 0xac, 0x4d, 0xbd,
  0x08, 0x8b, 0x81, 0xbd, 0x6d, 0xe4, 0x4e, 0xbd, 0xa4, 0x9b, 0x57, 0xbe,
  0x6f, 0xe6, 0x03, 0x3e, 0x77, 0x07, 0x06, 0xbe, 0x28, 0x57, 0x5e, 0xbd,
  0xfa, 0x63, 0xc7, 0x3d, 0xec, 0x96, 0x96, 0x3d, 0x19, 0x95, 0xdf, 0xbd,
  0x94, 0xf4, 0x46, 0xbd, 0xcc, 0x0f, 0x1a, 0x3c, 0xd7, 0x4d, 0xa6, 0xbd,
  0xd8, 0xd5, 0x68, 0x3e, 0x3e, 0xfb, 0x81, 0xbe, 0x48, 0xb6, 0xa4, 0x3d,
  0x27, 0x77, 0xfd, 0x3c, 0x17, 0xb8, 0xb3, 0xbd, 0xae, 0xe0, 0x01, 0xbe,
  0xaa, 0x2c, 0x85, 0x3d, 0x13, 0x81, 0x8e, 0x3d, 0xb1, 0xf0, 0x7b, 0xbc,
  0x90, 0x94, 0xba, 0x3c, 0xbb, 0x85, 0x02, 0xbe, 0xed, 0x3d, 0x03, 0xbe,
  0xc0, 0xd4, 0x96, 0x3d, 0x2f, 0xce, 0x0e, 0xbe, 0xe8, 0x18, 0x08, 0x3e,
  0xec, 0x27, 0x91, 0x3d, 0x59, 0x3f, 0x1f, 0xbe, 0xcb, 0x34, 0x2f, 0xbe,
  0x6b, 0x9b, 0x25, 0x3e, 0x78, 0xd5, 0x2d, 0x3e, 0x12, 0x14, 0x04, 0xbe,
  0x84, 0xa4, 0x62, 0xbd, 0xe9, 0xfe, 0x86, 0x3d, 0xb5, 0x95, 0x90, 0x3d,
  0x98, 0x45, 0x14, 0xbe, 0x8d, 0xf0, 0x34, 0x3e, 0x58, 0xce, 0x14, 0x3d,
  0xc7, 0x9f, 0x3e, 0x3d, 0x23, 0x3d, 0x2c, 0xbe, 0x23, 0x49, 0x87, 0xbc,
  0xe6, 0xe1, 0xc1, 0x3d, 0x78, 0xea, 0x17, 0x3d, 0x4a, 0xdf, 0x21, 0x3e,
  0x6b, 0xcc, 0x16, 0xbe, 0x58, 0x2c, 0x0e, 0x3e, 0xe2, 0x08, 0xca, 0x3c,
  0x6c, 0x3f, 0x11, 0xbe, 0x1a, 0xe4, 0x07, 0x3e, 0x88, 0x55, 0xca, 0x3c,
  0xa8, 0x77, 0x3b, 0x3d, 0x3b, 0x2f, 0x22, 0x3e, 0x67, 0x2f, 0x04, 0xbe,
  0xd6, 0xb2, 0x5f, 0x3d, 0x2a, 0x6f, 0x27, 0x3e, 0xd7, 0x0b, 0x04, 0xbd,
  0x7d, 0xb4, 0xde, 0xbd, 0x7a, 0x7d, 0x82, 0x3e, 0xab, 0x89, 0x95, 0xbd,
  0xb5, 0x67, 0x23, 0xbe, 0xfd, 0x29, 0x10, 0xbd, 0x40, 0x2c, 0xaf, 0xbd,
  0xdb, 0x20, 0xd5, 0xbd, 0x15, 0x13, 0x89, 0x3e, 0x40, 0x47, 0xd9, 0xbd,
  0x88, 0x6e, 0x1f, 0xbe, 0xbe, 0x7e, 0x5c, 0x3e, 0x51, 0x9e, 0x18, 0xbe,
  0x53, 0x1e, 0x9c, 0xbd, 0x12, 0x9e, 0xd2, 0x3d, 0x66, 0xf1, 0x33, 0x3e,
  0x96, 0x53, 0x81, 0xbd, 0x35, 0xf3, 0x70, 0xbe, 0xf9, 0x1c, 0x01, 0x3c,
  0xfc, 0xf0, 0x98, 0x3d, 0x19, 0xd9, 0x3e, 0x3e, 0x7b, 0x91, 0xbe, 0x3d,
  0xfc, 0x44, 0x4c, 0x3e, 0xd6, 0x5d, 0x07, 0xbe, 0xb6, 0xff, 0x36, 0x3d,
  0x6e, 0x78, 0xee, 0xbc, 0x17, 0xd4, 0x3f, 0xbe, 0xd3, 0x87, 0xdf, 0x3d,
  0xa9, 0xe0, 0x8a, 0xbd, 0x3a, 0xaf, 0xd2, 0x3c, 0x27, 0x0f, 0x9f, 0xbc,
  0x47, 0xfc, 0xcd, 0x3d, 0xef, 0x84, 0x1d, 0x3e, 0xa2, 0x00, 0x86, 0xbe,
  0x85, 0x86, 0x1d, 0x3d, 0x3d, 0x89, 0x55, 0x3e, 0xe8, 0xf8, 0x28, 0xbd,
  0x7b, 0x99, 0x04, 0x3e, 0x21, 0xe0, 0xf6, 0xbd, 0xf6, 0x6e, 0x61, 0x3e,
  0x07, 0x33, 0x84, 0xbd, 0xf2, 0x6f, 0x32, 0xbe, 0x5e, 0xe0, 0xa9, 0x3d,
  0xd6, 0xff, 0x18, 0x3e, 0x89, 0x10, 0x86, 0x3c, 0xc9, 0xeb, 0x87, 0x3d,
  0xa7, 0x96, 0x27, 0x3d, 0xb2, 0x87, 0xe0, 0x3d, 0xfb, 0x71, 0x1a, 0xbe,
  0x87, 0x63, 0xa4, 0xbc, 0x70, 0x67, 0x8c, 0x3e, 0x80, 0x47, 0x42, 0x3d,
  0x6f, 0x98, 0xec, 0xbd, 0x8a, 0xb9, 0xd3, 0x3d, 0x87, 0x71, 0x33, 0x3d,
  0x96, 0xc0, 0x62, 0xbc, 0xb7, 0xe5, 0xf3, 0xbd, 0xe1, 0xee, 0xd1, 0xbc,
  0xfa, 0x35, 0x92, 0xbd, 0x62, 0x5c, 0x68, 0xbd, 0xe2, 0x9f, 0x9e, 0xbd,
  0x29, 0x47, 0x03, 0xbe, 0x48, 0x48, 0xe2, 0xbd, 0xf5, 0x2d, 0x28, 0xbe,
  0x43, 0xd4, 0x67, 0x3d, 0xca, 0x10, 0xb1, 0x3d, 0x78, 0x65, 0x88, 0x3d,
  0x4c, 0x36, 0xe3, 0xbd, 0x8e, 0x3f, 0x7e, 0x3c, 0x39, 0xe7, 0x07, 0x3c,
  0x73, 0x68, 0xe8, 0xbd, 0x98, 0x38, 0xe9, 0xbc, 0x61, 0x3f, 0xe4, 0x3d,
  0x00, 0x00, 0x97, 0x3d, 0x7f, 0x09, 0x24, 0xbe, 0xc6, 0xb2, 0x8b, 0x3c,
  0x90, 0x28, 0x4f, 0x3d, 0xba, 0x1d, 0x35, 0xbd, 0x32, 0xb7, 0x44, 0x3e,
  0x56, 0xa3, 0x87, 0xbd, 0xf6, 0x9d, 0xcb, 0x3c, 0xa4, 0x63, 0x02, 0x3e,
  0x28, 0xdf, 0x42, 0xbd, 0xa6, 0x83, 0xb1, 0xbd, 0x5a, 0x07, 0xde, 0xbd,
  0xd5, 0x06, 0x64, 0xbe, 0x72, 0xa7, 0x0f, 0x3c, 0x98, 0x90, 0x65, 0x3e,
  0x2a, 0xb9, 0xd9, 0x3d, 0x34, 0xfd, 0x4e, 0xbe, 0x16, 0xdc, 0xa5, 0x3b,
  0x9d, 0x24, 0x17, 0x3e, 0xdc, 0xd9, 0xfa, 0x3d, 0x2b, 0xb1, 0x94, 0x3e,
  0xb5, 0xc4, 0x9d, 0xbc, 0x5b, 0x39, 0x50, 0xbc, 0xf0, 0x78, 0x60, 0x3e,
  0xef, 0x50, 0x12, 0x3e, 0xc1, 0x08, 0x9b, 0x3e, 0x5c, 0x12, 0x13, 0xbd,
  0xd6, 0x54, 0x03, 0x3e, 0x2b, 0xaf, 0x16, 0x3e, 0x47, 0x51, 0xb1, 0x3d,
  0x55, 0xd4, 0xce, 0x3d, 0xc7, 0xa0, 0x02, 0x3e, 0xdd, 0x2f, 0x26, 0x3d,
  0xa5, 0xcd, 0x86, 0xbe, 0xcf, 0xf4, 0xb1, 0x3d, 0x2a, 0xdc, 0x39, 0x3c,
  0xce, 0x36, 0x9d, 0xbd, 0x28, 0xce, 0x4d, 0x3e, 0x94, 0xf5, 0xbe, 0x3d,
  0x76, 0x26, 0x48, 0x3e, 0xb3, 0x4e, 0x54, 0xbe, 0x53, 0x82, 0x23, 0xbd,
  0xb3, 0x3c, 0x27, 0x3e, 0x17, 0xff, 0x65, 0xbd, 0xe1, 0x60, 0xd2, 0x3b,
  0x03, 0xd3, 0x59, 0xbe, 0x0f, 0xd4, 0x80, 0xbc, 0xa8, 0x74, 0x1e, 0xbd,
  0x3d, 0xc0, 0x21, 0xbd, 0xac, 0x37, 0xa8, 0xbd, 0x21, 0xd7, 0x61, 0x3e,
  0xdd, 0x3b, 0x3f, 0xbd, 0x61, 0x0b, 0x90, 0xbe, 0x49, 0x42, 0xb6, 0x3d,
  0xe4, 0xbc, 0x79, 0xbd, 0x63, 0x49, 0x2d, 0xbe, 0xed, 0x51, 0xec, 0x3d,
  0x6b, 0x29, 0x65, 0x3e, 0xf9, 0xa8, 0x1f, 0xbe, 0xa1, 0x12, 0x54, 0xbd,
  0x8d, 0xbe, 0xba, 0x3d, 0xb6, 0x11, 0xa0, 0x3e, 0x01, 0x27, 0x3a, 0xbe,
  0x3b, 0x2f, 0x89, 0xbd, 0x45, 0x2f, 0xf9, 0xbd, 0xbb, 0x88, 0x8e, 0x3c,
  0x74, 0xd1, 0xad, 0x3b, 0x35, 0xea, 0xa4, 0xbe, 0x91, 0xd0, 0x14, 0xbe,
  0x5f, 0xa3, 0x76, 0x3d, 0x46, 0xfd, 0x0e, 0xbe, 0xa7, 0x9e, 0x7f, 0xbe,
  0xde, 0xf2, 0xda, 0x3d, 0x9f, 0xff, 0x0d, 0xbe, 0x6a, 0xc9, 0xbf, 0x3d,
  0xf5, 0x4f, 0xc2, 0xbb, 0xd5, 0xf3, 0x74, 0xbe, 0xdb, 0x6a, 0xbc, 0x3d,
  0xe7, 0x1f, 0x84, 0x3d, 0x24, 0x43, 0x22, 0x3e, 0x27, 0x02, 0x3b, 0xbe,
  0x08, 0xda, 0x36, 0xbe, 0x7e, 0xf4, 0xfa, 0xbd, 0xf4, 0x17, 0x43, 0x3e,
  0x73, 0xc4, 0x49, 0x3e, 0xe5, 0x10, 0x15, 0x3d, 0x0e, 0x21, 0x5f, 0xbe,
  0x95, 0xc6, 0xb8, 0x3d, 0x2d, 0xc9, 0x1f, 0xbe, 0x7d, 0x3f, 0x5f, 0x3e,
  0xa2, 0xc3, 0x99, 0xbd, 0x56, 0xf2, 0x4a, 0xbe, 0x8c, 0xbe, 0x0e, 0xbe,
  0x6d, 0x83, 0x96, 0xbd, 0x9c, 0x5b, 0x9e, 0x3d, 0xd5, 0xae, 0x88, 0xbc,
  0xcc, 0x78, 0xf7, 0xbc, 0xaa, 0xb8, 0x13, 0xbe, 0x3d, 0xd6, 0x2d, 0xbd,
  0xf3, 0x91, 0x83, 0xbd, 0x36, 0x61, 0x41, 0x3e, 0xaf, 0xd2, 0x22, 0x3e,
  0x26, 0x41, 0x21, 0xbe, 0xa6, 0xda, 0x0b, 0xbe, 0x66, 0x42, 0x03, 0xbe,
  0x92, 0xea, 0x1e, 0x3d, 0x27, 0xe6, 0x91, 0xbd, 0xbd, 0x15, 0x77, 0x3c,
  0xee, 0x93, 0xcd, 0xbd, 0x03, 0xb9, 0x8a, 0xbe, 0x0a, 0x05, 0x9e, 0x3c,
  0xd3, 0x0e, 0x3a, 0xbe, 0xfa, 0x0d, 0x3d, 0xbe, 0x8d, 0x53, 0xbe, 0xbd,
  0x6f, 0x24, 0x78, 0x3d, 0x73, 0x92, 0x1f, 0xbe, 0xd9, 0x9d, 0xb2, 0xbc,
  0x8c, 0xcc, 0x84, 0x3d, 0x27, 0x7e, 0x2a, 0x3e, 0x63, 0xd1, 0x46, 0xbd,
  0x38, 0x6f, 0x09, 0x3e, 0xf4, 0xcf, 0x24, 0xbe, 0xea, 0xff, 0x8f, 0x3d,
  0x18, 0xc2, 0xec, 0x3c, 0x60, 0x70, 0xc9, 0xbd, 0x6f, 0x4a, 0x7b, 0x3d,
  0xe9, 0x6d, 0xdf, 0x3d, 0xae, 0x3e, 0x8b, 0x3c, 0x25, 0xa1, 0x53, 0xbd,
  0xad, 0x60, 0xa9, 0x3d, 0x4f, 0x42, 0xb6, 0x3d, 0x2f, 0x80, 0x0e, 0xbe,
  0x31, 0xd4, 0x70, 0x3d, 0x34, 0xed, 0x0a, 0x3e, 0x7e, 0x08, 0xd9, 0x3d,
  0x98, 0x2f, 0xa4, 0x3d, 0x00, 0x56, 0xa8, 0x3d, 0xc3, 0x96, 0x35, 0x3e,
  0x4a, 0xee, 0x0f, 0xbb, 0xbd, 0xe6, 0x2e, 0x3e, 0xa9, 0x0a, 0x45, 0xbe,
  0xd4, 0x76, 0xa3, 0xba, 0xc0, 0x6e, 0x7d, 0x3e, 0xe1, 0xd7, 0xa0, 0xbc,
  0x50, 0x7f, 0x12, 0x3b, 0x24, 0x0c, 0xff, 0x3d, 0xc6, 0x22, 0x5d, 0xbe,
  0x7d, 0x5d, 0x7b, 0x3d, 0xae, 0x9c, 0x58, 0x3d, 0x34, 0x46, 0x58, 0xbd,
  0x27, 0xf1, 0xb1, 0xbd, 0x7e, 0x92, 0xca, 0x3d, 0x8b, 0x2e, 0x59, 0x3c,
  0x8e, 0xc2, 0x82, 0x3e, 0x22, 0x0e, 0x3e, 0xbc, 0x63, 0xfd, 0xaa, 0xbd,
  0xa5, 0x77, 0xe8, 0x3d, 0x2b, 0x22, 0x03, 0x3e, 0x53, 0x7f, 0x9a, 0xbd,
  0x45, 0x27, 0x1c, 0xbd, 0x81, 0x05, 0x39, 0xbd, 0x7b, 0x12, 0xe0, 0x3d,
  0x64, 0x30, 0x44, 0x3d, 0x31, 0xf8, 0x91, 0x3d, 0xeb, 0x8c, 0x2d, 0x3d,
  0x6f, 0xac, 0x48, 0x3e, 0xee, 0x2a, 0x38, 0xbd, 0x09, 0x39, 0x6d, 0xbd,
  0xb0, 0xd3, 0xa9, 0x3d, 0xaf, 0x46, 0x3e, 0xbe, 0x8f, 0x93, 0x18, 0xbd,
  0xc0, 0x7c, 0xfa, 0xbd, 0x76, 0xff, 0x2b, 0xbe, 0xe9, 0xbc, 0xc0, 0xbd,
  0xb9, 0x41, 0x76, 0x3b, 0x19, 0x6a, 0x00, 0xbd, 0x74, 0x68, 0xae, 0x3d,
  0x17, 0xc1, 0xbe, 0xbd, 0x27, 0x5d, 0xb4, 0xbd, 0x5f, 0x92, 0x69, 0x3d,
  0xa4, 0x0f, 0xf0, 0xbd, 0x7e, 0xf8, 0x5d, 0xbe, 0x49, 0x44, 0x80, 0xbd,
  0x5e, 0x1b, 0xcc, 0x3b, 0x7f, 0xc5, 0xaa, 0xbd, 0x40, 0x2c, 0x8c, 0xbe,
  0xfd, 0xc3, 0x28, 0xbd, 0x82, 0x5e, 0x3f, 0xbd, 0x9b, 0xa5, 0x9d, 0xbd,
  0xb0, 0x3c, 0xb8, 0xbd, 0xa1, 0x99, 0x01, 0xbe, 0xa9, 0x9d, 0xfd, 0xbd,
  0x8c, 0x6b, 0x6e, 0xbd, 0x2f, 0x1b, 0xaf, 0xbd, 0x87, 0xe4, 0x5f, 0x3e,
  0x7c, 0x4f, 0x3f, 0x3e, 0xff, 0x95, 0xf8, 0xbd, 0xbe, 0x1d, 0x12, 0x3d,
  0x55, 0xa6, 0xda, 0x3d, 0x79, 0x9b, 0x2c, 0x3e, 0x52, 0x34, 0x18, 0x3d,
  0x13, 0x67, 0x03, 0xbd, 0xff, 0x26, 0x2a, 0x3e, 0xc9, 0x2f, 0x4b, 0x3e,
  0xfc, 0x26, 0x96, 0xbc, 0x12, 0x61, 0x98, 0xbc, 0x65, 0xf6, 0xac, 0x3d,
  0x1e, 0x27, 0x23, 0xbe, 0x20, 0x37, 0x41, 0x3d, 0x59, 0xac, 0x14, 0x3e,
  0x25, 0xb0, 0xf6, 0x3d, 0xe2, 0x7c, 0x0c, 0xbe, 0xfb, 0xa8, 0x3c, 0x3e,
  0x81, 0xff, 0xe3, 0xbd, 0x70, 0x86, 0x32, 0xbd, 0xcc, 0xec, 0xd2, 0x3d,
  0x89, 0x72, 0xad, 0x3d, 0x91, 0x0d, 0x14, 0x3d, 0xb7, 0x71, 0x5e, 0x3d,
  0x9d, 0xdf, 0xca, 0x3d, 0xeb, 0x41, 0x12, 0x3e, 0xef, 0x15, 0x11, 0x3d,
  0x4a, 0xdd, 0xb8, 0xbd, 0xb8, 0xb2, 0xb0, 0x3e, 0xb9, 0x23, 0xa0, 0x3d,
  0x0c, 0xef, 0x42, 0x3e, 0x48, 0xf8, 0x18, 0xbe, 0xa6, 0x3c, 0x61, 0x3c,
  0x00, 0x18, 0xe3, 0xbc, 0x86, 0x2f, 0x12, 0x3e, 0x82, 0xdc, 0xbd, 0xbd,
  0xac, 0x14, 0x04, 0x3d, 0x1f, 0xd9, 0x64, 0xbe, 0xd7, 0x37, 0x42, 0xbe,
  0xc4, 0x44, 0x52, 0xbd, 0xf9, 0x2c, 0xb5, 0xbd, 0x4f, 0xe9, 0x21, 0xbe,
  0x27, 0x22, 0xdd, 0xbd, 0x80, 0xa2, 0xc5, 0xbd, 0x9e, 0x71, 0x3b, 0xbe,
  0x10, 0x88, 0x29, 0x3c, 0xb6, 0x66, 0xc0, 0xbd, 0x04, 0xe2, 0x33, 0xbe,
  0x0b, 0xe6, 0x1e, 0x3d, 0x3d, 0x28, 0x0a, 0xbe, 0x59, 0xba, 0x3c, 0xbd,
  0x4f, 0x93, 0xfd, 0xbd, 0x80, 0xaf, 0xa4, 0xbd, 0x96, 0xf2, 0x4b, 0x3e,
  0x70, 0x07, 0x3c, 0xbe, 0x13, 0xa0, 0x38, 0x3c, 0xf9, 0xcf, 0xa4, 0x3c,
  0xc5, 0x5b, 0x09, 0x3d, 0x01, 0x8f, 0xf7, 0x3d, 0xb7, 0x39, 0xbd, 0xbd,
  0x94, 0x38, 0x73, 0xbd, 0x4a, 0xa8, 0x0e, 0x3e, 0x34, 0x8c, 0x56, 0xbd,
  0x4c, 0x57, 0x62, 0x3b, 0x1f, 0x95, 0xf2, 0x3d, 0x0d, 0x48, 0x23, 0x3e,
  0xa1, 0x8c, 0x14, 0xbe, 0x3f, 0x44, 0x27, 0x3e, 0xb2, 0xce, 0x52, 0xbe,
  0x1c, 0x0b, 0x57, 0x3c, 0xf2, 0x80, 0x82, 0x3e, 0x65, 0x99, 0xcc, 0xbd,
  0x07, 0x27, 0x34, 0x3e, 0xef, 0x6f, 0x10, 0x3d, 0xf1, 0x3e, 0x05, 0xbe,
  0xae, 0xf6, 0x88, 0xbd, 0x18, 0x83, 0x43, 0xbd, 0x3e, 0x3c, 0x19, 0x3e,
  0x62, 0x82, 0x97, 0xbd, 0x59, 0x5a, 0x02, 0x3b, 0x30, 0x81, 0x96, 0x3c,
  0x9f, 0xb6, 0xcb, 0xbc, 0x58, 0x51, 0x05, 0x3d, 0xc8, 0xa3, 0x65, 0x3e,
  0xc8, 0xaa, 0xd0, 0x3c, 0x07, 0x3c, 0x05, 0xbe, 0x3d, 0x7b, 0x2a, 0xbc,
  0x16, 0x51, 0x37, 0xbe, 0xed, 0x2c, 0xa0, 0x3c, 0xaf, 0xca, 0x0b, 0xbe,
  0x9d, 0xb0, 0xa2, 0x3c, 0x38, 0x0a, 0x04, 0xbe, 0x0e, 0xc5, 0xcd, 0xbd,
  0xca, 0x22, 0x70, 0x3e, 0x11, 0x51, 0x53, 0x3e, 0x8d, 0x08, 0x3b, 0xbe,
  0x84, 0xf6, 0x1d, 0xbe, 0x7c, 0x05, 0xb1, 0xbd, 0x42, 0x02, 0x35, 0xbe,
  0xd1, 0xad, 0x0b, 0xbd, 0xf8, 0xa9, 0x3d, 0xbe, 0xca, 0x82, 0x18, 0xbe,
  0x88, 0x32, 0x82, 0xbd, 0xb1, 0xd4, 0xcc, 0x3b, 0x82, 0x0b, 0x51, 0x3d,
  0xb5, 0xa0, 0xb3, 0x3d, 0x19, 0xd6, 0x22, 0xbe, 0x1f, 0x39, 0x7c, 0x3d,
  0x4a, 0xd1, 0x30, 0x3b, 0x1d, 0x4e, 0x48, 0x3e, 0x61, 0x1d, 0xbf, 0xbd,
  0xf8, 0x05, 0x9f, 0x3d, 0x6d, 0x9d, 0x4c, 0xbd, 0xfe, 0xb6, 0x5d, 0x3d,
  0xae, 0xee, 0x24, 0x3d, 0x08, 0x19, 0x13, 0x3e, 0xe6, 0xef, 0x7c, 0xbe,
  0x99, 0xef, 0x2e, 0x3e, 0x98, 0xc4, 0x1b, 0x3c, 0x06, 0x51, 0xa7, 0x3d,
  0xde, 0xb8, 0x09, 0x3e, 0xdb, 0xfc, 0x87, 0xbe, 0x94, 0xc8, 0x52, 0x3e,
  0x63, 0xa7, 0x75, 0x3c, 0xb7, 0xc2, 0x6a, 0x3d, 0x31, 0x36, 0x1f, 0x3d,
  0x20, 0x5e, 0x4a, 0xbd, 0xe0, 0xee, 0x1b, 0xbe, 0x80, 0x03, 0x47, 0xbd,
  0xba, 0xe2, 0x80, 0x3c, 0x95, 0x59, 0x42, 0x3d, 0x77, 0x6a, 0xfb, 0x3d,
  0x37, 0xda, 0x0e, 0x3a, 0x42, 0x4b, 0xa5, 0xba, 0xde, 0x71, 0xeb, 0x3d,
  0x6f, 0x31, 0xf9, 0x3d, 0x26, 0x5b, 0x85, 0xbb, 0x65, 0x60, 0x88, 0x3c,
  0x79, 0x87, 0x05, 0xbc, 0x61, 0x95, 0x4e, 0xbe, 0x53, 0xc1, 0xea, 0xbd,
  0xc9, 0x82, 0xea, 0xbd, 0xb7, 0x17, 0xa1, 0x3d, 0xf5, 0x11, 0x4b, 0x3e,
  0x78, 0x5b, 0x99, 0xbc, 0x59, 0x7f, 0x57, 0x3e, 0x5d, 0x48, 0x84, 0x3e,
  0x9c, 0x13, 0xc5, 0x3d, 0xf4, 0x59, 0x85, 0x3d, 0x8a, 0x89, 0x47, 0xbc,
  0xe3, 0xde, 0x5f, 0xbc, 0x5d, 0x1f, 0xa0, 0xbd, 0xac, 0x8b, 0x39, 0xbe,
  0x01, 0x59, 0x2f, 0xbe, 0xf5, 0x30, 0x4a, 0xbd, 0xc6, 0xb2, 0x23, 0xbe,
  0x88, 0x98, 0x80, 0x3c, 0x8e, 0x19, 0x41, 0xbd, 0x47, 0x8e, 0x01, 0xbe,
  0x75, 0x5f, 0xbf, 0x3d, 0x26, 0x14, 0x28, 0x3b, 0x66, 0x31, 0xde, 0x3c,
  0x5c, 0x74, 0xd8, 0xbd, 0xd4, 0xa1, 0xda, 0x3d, 0xbf, 0xfc, 0x95, 0x3c,
  0x98, 0x5c, 0x71, 0x3d, 0x2c, 0x39, 0x9d, 0xbd, 0xab, 0x11, 0xd9, 0xbd,
  0x8f, 0xa3, 0xee, 0x3d, 0x60, 0xc2, 0xb6, 0x3c, 0x4b, 0x9b, 0x5f, 0xbd,
  0xe5, 0xec, 0xe8, 0xbb, 0xda, 0x61, 0x95, 0xbd, 0x05, 0x0d, 0xf8, 0x3d,
  0xe1, 0x45, 0x17, 0x3e, 0x2c, 0x74, 0xdd, 0x3b, 0xea, 0x2a, 0x85, 0xbd,
  0xb4, 0xe4, 0x29, 0xbe, 0xda, 0xc6, 0xcc, 0xbd, 0x14, 0x27, 0xbd, 0xbd,
  0xab, 0xfe, 0x1b, 0x3e, 0xab, 0x25, 0x54, 0xbd, 0xbf, 0x27, 0x50, 0x3d,
  0x77, 0xb1, 0xbc, 0xb9, 0x0c, 0xf5, 0x99, 0xbd, 0x8f, 0x77, 0x27, 0xbd,
  0xc4, 0x86, 0x91, 0xbd, 0x2b, 0xc4, 0x15, 0x3e, 0x92, 0xc1, 0xac, 0xbd,
  0xd6, 0x68, 0x91, 0xbc, 0x27, 0xc6, 0xbe, 0x3d, 0x63, 0x2d, 0xa3, 0xbc,
  0xd7, 0x16, 0x61, 0x3e, 0x00, 0x35, 0x63, 0xbe, 0x6b, 0x18, 0x04, 0xbc,
  0x68, 0xaf, 0x8c, 0xbd, 0x54, 0xcf, 0x81, 0xbd, 0x9e, 0xa7, 0xaa, 0xbd,
  0x25, 0x79, 0x07, 0x3d, 0x2c, 0x04, 0x7e, 0x3d, 0x06, 0xfe, 0xff, 0xff,
  0x10, 0x00, 0x00, 0x00, 0x04, 0x00, 0x00, 0x00, 0x14, 0x00, 0x00, 0x00,
  0x38, 0x00, 0x00, 0x00, 0x02, 0x00, 0x00, 0x00, 0x48, 0x00, 0x00, 0x00,
  0x2a, 0x00, 0x00, 0x00, 0x20, 0x00, 0x00, 0x00, 0x73, 0x65, 0x71, 0x75,
  0x65, 0x6e, 0x74, 0x69, 0x61, 0x6c, 0x5f, 0x31, 0x2f, 0x64, 0x65, 0x6e,
  0x73, 0x65, 0x5f, 0x44, 0x65, 0x6e, 0x73, 0x65, 0x31, 0x2f, 0x4d, 0x61,
  0x74, 0x4d, 0x75, 0x6c, 0x00, 0x00, 0x00, 0x00, 0x80, 0xfd, 0xff, 0xff,
  0x86, 0xff, 0xff, 0xff, 0x04, 0x00, 0x00, 0x00, 0x08, 0x00, 0x00, 0x00,
  0xb1, 0x1c, 0xe5, 0x3e, 0xb1, 0x1c, 0xe5, 0xbe, 0x66, 0xfe, 0xff, 0xff,
  0x10, 0x00, 0x00, 0x00, 0x03, 0x00, 0x00, 0x00, 0x10, 0x00, 0x00, 0x00,
  0x50, 0x00, 0x00, 0x00, 0x01, 0x00, 0x00, 0x00, 0x02, 0x00, 0x00, 0x00,
  0x39, 0x00, 0x00, 0x00, 0x73, 0x65, 0x71, 0x75, 0x65, 0x6e, 0x74, 0x69,
  0x61, 0x6c, 0x5f, 0x31, 0x2f, 0x64, 0x65, 0x6e, 0x73, 0x65, 0x5f, 0x44,
  0x65, 0x6e, 0x73, 0x65, 0x32, 0x2f, 0x42, 0x69, 0x61, 0x73, 0x41, 0x64,
  0x64, 0x2f, 0x52, 0x65, 0x61, 0x64, 0x56, 0x61, 0x72, 0x69, 0x61, 0x62,
  0x6c, 0x65, 0x4f, 0x70, 0x2f, 0x72, 0x65, 0x73, 0x6f, 0x75, 0x72, 0x63,
  0x65, 0x00, 0x00, 0x00, 0x04, 0x00, 0x06, 0x00, 0x04, 0x00, 0x00, 0x00,
  0x00, 0x00, 0x06, 0x00, 0x08, 0x00, 0x04, 0x00, 0x06, 0x00, 0x00, 0x00,
  0x04, 0x00, 0x00, 0x00, 0x20, 0x01, 0x00, 0x00, 0xd0, 0x52, 0xce, 0xbd,
  0x72, 0x42, 0xc4, 0x3a, 0x03, 0x12, 0x69, 0xbd, 0x20, 0xea, 0xf1, 0xba,
  0xf2, 0x5e, 0x84, 0xba, 0x03, 0x86, 0xc0, 0xb9, 0x61, 0x57, 0x8b, 0xbd,
  0xe8, 0x1a, 0xcd, 0x3a, 0xad, 0xe1, 0x58, 0xbd, 0x19, 0xca, 0x84, 0x3a,
  0x21, 0xdf, 0x9e, 0x3a, 0x1d, 0x2b, 0x3d, 0x3e, 0x29, 0x56, 0xab, 0xbd,
  0x2a, 0x4a, 0x3c, 0xbb, 0x9a, 0x3c, 0xcc, 0x3e, 0x43, 0xfb, 0x41, 0x3d,
  0xcc, 0xfe, 0x7b, 0x3a, 0x26, 0x66, 0x2a, 0xba, 0x7c, 0xe3, 0x37, 0x39,
  0xc3, 0x36, 0x6f, 0xbd, 0x18, 0x2d, 0xe1, 0xb8, 0x3b, 0xdf, 0xc2, 0xba,
  0x84, 0x1e, 0x90, 0xba, 0x1a, 0x7e, 0x56, 0x3a, 0x50, 0x7a, 0xa4, 0xba,
  0xcc, 0x74, 0x9e, 0xba, 0xf6, 0x42, 0x8e, 0xbd, 0x2f, 0x9b, 0x55, 0xba,
  0xc3, 0xde, 0x02, 0x3e, 0x5f, 0xbb, 0x2d, 0xba, 0x8f, 0x8c, 0x0f, 0xbd,
  0xf2, 0xf1, 0xd5, 0xba, 0x11, 0xd3, 0xa1, 0xbd, 0x0c, 0xd3, 0x17, 0x3a,
  0xaa, 0x8e, 0x95, 0xba, 0x13, 0x73, 0x8a, 0x39, 0x32, 0xe4, 0x69, 0x38,
  0x8b, 0x19, 0x9a, 0x3e, 0xc4, 0xad, 0x02, 0xba, 0xbf, 0xc3, 0xb1, 0xbd,
  0x5b, 0x0c, 0xa2, 0x39, 0xf4, 0x07, 0x17, 0xb9, 0x6c, 0xca, 0xa3, 0x3e,
  0x18, 0xee, 0xc2, 0x37, 0x90, 0xe1, 0x1b, 0x38, 0xa6, 0x80, 0x7e, 0x3a,
  0x05, 0x22, 0x97, 0xba, 0x8c, 0x4b, 0x96, 0x3e, 0x35, 0x73, 0x0d, 0x3b,
  0xe0, 0x0c, 0x77, 0xba, 0x22, 0x64, 0x11, 0x3a, 0x90, 0x5e, 0x55, 0xba,
  0x78, 0x8a, 0x04, 0x3c, 0x90, 0x48, 0x29, 0x3e, 0xb8, 0xfc, 0xe0, 0x3d,
  0x52, 0xe2, 0xef, 0x38, 0xe5, 0x4e, 0xa6, 0x3e, 0x47, 0x0b, 0x12, 0x3a,
  0xb5, 0x15, 0x64, 0xbd, 0x3c, 0x88, 0x8f, 0xbc, 0x17, 0xb2, 0x11, 0x3a,
  0x38, 0xe9, 0x58, 0xba, 0xd3, 0x00, 0xac, 0xba, 0x8a, 0x69, 0xf0, 0x3e,
  0x34, 0x13, 0xa1, 0xba, 0xd6, 0xf2, 0xf3, 0x39, 0xeb, 0xe5, 0xcd, 0xbd,
  0x0e, 0x13, 0x7f, 0x3a, 0xd9, 0x28, 0xfb, 0x3a, 0xb7, 0x83, 0x86, 0xbd,
  0x28, 0x7c, 0xa4, 0xba, 0x25, 0x00, 0x9e, 0xb9, 0x00, 0x00, 0x0e, 0x00,
  0x14, 0x00, 0x04, 0x00, 0x00, 0x00, 0x08, 0x00, 0x0c, 0x00, 0x10, 0x00,
  0x0e, 0x00, 0x00, 0x00, 0x10, 0x00, 0x00, 0x00, 0x02, 0x00, 0x00, 0x00,
  0x10, 0x00, 0x00, 0x00, 0x4c, 0x00, 0x00, 0x00, 0x01, 0x00, 0x00, 0x00,
  0x48, 0x00, 0x00, 0x00, 0x39, 0x00, 0x00, 0x00, 0x73, 0x65, 0x71, 0x75,
  0x65, 0x6e, 0x74, 0x69, 0x61, 0x6c, 0x5f, 0x31, 0x2f, 0x64, 0x65, 0x6e,
  0x73, 0x65, 0x5f, 0x44, 0x65, 0x6e, 0x73, 0x65, 0x31, 0x2f, 0x42, 0x69,
  0x61, 0x73, 0x41, 0x64, 0x64, 0x2f, 0x52, 0x65, 0x61, 0x64, 0x56, 0x61,
  0x72, 0x69, 0x61, 0x62, 0x6c, 0x65, 0x4f, 0x70, 0x2f, 0x72, 0x65, 0x73,
  0x6f, 0x75, 0x72, 0x63, 0x65, 0x00, 0x00, 0x00, 0x9c, 0xff, 0xff, 0xff,
  0x14, 0x00, 0x18, 0x00, 0x04, 0x00, 0x00, 0x00, 0x08, 0x00, 0x0c, 0x00,
  0x10, 0x00, 0x00, 0x00, 0x00, 0x00, 0x14, 0x00, 0x14, 0x00, 0x00, 0x00,
  0x14, 0x00, 0x00, 0x00, 0x01, 0x00, 0x00, 0x00, 0x18, 0x00, 0x00, 0x00,
  0x38, 0x00, 0x00, 0x00, 0x28, 0x00, 0x00, 0x00, 0x02, 0x00, 0x00, 0x00,
  0x01, 0x00, 0x00, 0x00, 0x2a, 0x00, 0x00, 0x00, 0x12, 0x00, 0x00, 0x00,
  0x64, 0x65, 0x6e, 0x73, 0x65, 0x5f, 0x44, 0x65, 0x6e, 0x73, 0x65, 0x31,
  0x5f, 0x69, 0x6e, 0x70, 0x75, 0x74, 0x00, 0x00, 0x02, 0x00, 0x00, 0x00,
  0xff, 0xff, 0xff, 0xff, 0x2a, 0x00, 0x00, 0x00, 0xfc, 0xff, 0xff, 0xff,
  0x04, 0x00, 0x04, 0x00, 0x04, 0x00, 0x00, 0x00
};

const unsigned int tfLite_model_length = 14432;