#include "weight_model_right.h"

unsigned char weight_model_right[] = {
  0x1c, 0x00, 0x00, 0x00, 0x54, 0x46, 0x4c, 0x33, 0x14, 0x00, 0x20, 0x00,
  0x04, 0x00, 0x08, 0x00, 0x0c, 0x00, 0x10, 0x00, 0x14, 0x00, 0x00, 0x00,
  0x18, 0x00, 0x1c, 0x00, 0x14, 0x00, 0x00, 0x00, 0x03, 0x00, 0x00, 0x00,
  0x18, 0x00, 0x00, 0x00, 0x20, 0x00, 0x00, 0x00, 0xa4, 0x00, 0x00, 0x00,
  0x20, 0x00, 0x00, 0x00, 0x4c, 0x00, 0x00, 0x00, 0x44, 0x00, 0x00, 0x00,
  0x02, 0x00, 0x00, 0x00, 0xac, 0x02, 0x00, 0x00, 0x40, 0x01, 0x00, 0x00,
  0x01, 0x00, 0x00, 0x00, 0xa8, 0x00, 0x00, 0x00, 0x0a, 0x00, 0x00, 0x00,
  0xd0, 0x09, 0x00, 0x00, 0xcc, 0x09, 0x00, 0x00, 0xe4, 0x08, 0x00, 0x00,
  0x28, 0x08, 0x00, 0x00, 0xcc, 0x03, 0x00, 0x00, 0x30, 0x03, 0x00, 0x00,
  0xb8, 0x09, 0x00, 0x00, 0xb4, 0x09, 0x00, 0x00, 0xb0, 0x09, 0x00, 0x00,
  0x3c, 0x00, 0x00, 0x00, 0x00, 0x00, 0x00, 0x00, 0x01, 0x00, 0x00, 0x00,
  0x0c, 0x00, 0x00, 0x00, 0x08, 0x00, 0x0c, 0x00, 0x04, 0x00, 0x08, 0x00,
  0x08, 0x00, 0x00, 0x00, 0x08, 0x00, 0x00, 0x00, 0x09, 0x00, 0x00, 0x00,
  0x13, 0x00, 0x00, 0x00, 0x6d, 0x69, 0x6e, 0x5f, 0x72, 0x75, 0x6e, 0x74,
  0x69, 0x6d, 0x65, 0x5f, 0x76, 0x65, 0x72, 0x73, 0x69, 0x6f, 0x6e, 0x00,
  0x7a, 0xf7, 0xff, 0xff, 0x04, 0x00, 0x00, 0x00, 0x10, 0x00, 0x00, 0x00,
  0x31, 0x2e, 0x31, 0x34, 0x2e, 0x30, 0x00, 0x00, 0x00, 0x00, 0x00, 0x00,
  0x00, 0x00, 0x00, 0x00, 0x0f, 0x00, 0x00, 0x00, 0x4d, 0x4c, 0x49, 0x52,
  0x20, 0x43, 0x6f, 0x6e, 0x76, 0x65, 0x72, 0x74, 0x65, 0x64, 0x2e, 0x00,
  0x00, 0x00, 0x0e, 0x00, 0x18, 0x00, 0x04, 0x00, 0x08, 0x00, 0x0c, 0x00,
  0x10, 0x00, 0x14, 0x00, 0x0e, 0x00, 0x00, 0x00, 0x14, 0x00, 0x00, 0x00,
  0x34, 0x00, 0x00, 0x00, 0x38, 0x00, 0x00, 0x00, 0x3c, 0x00, 0x00, 0x00,
  0x48, 0x00, 0x00, 0x00, 0x08, 0x00, 0x00, 0x00, 0xc4, 0x08, 0x00, 0x00,
  0x4c, 0x08, 0x00, 0x00, 0xbc, 0x07, 0x00, 0x00, 0x20, 0x07, 0x00, 0x00,
  0xc4, 0x02, 0x00, 0x00, 0xd8, 0x01, 0x00, 0x00, 0xf0, 0x00, 0x00, 0x00,
  0x68, 0x00, 0x00, 0x00, 0x01, 0x00, 0x00, 0x00, 0x00, 0x00, 0x00, 0x00,
  0x01, 0x00, 0x00, 0x00, 0x07, 0x00, 0x00, 0x00, 0x03, 0x00, 0x00, 0x00,
  0x60, 0x01, 0x00, 0x00, 0xa0, 0x00, 0x00, 0x00, 0x18, 0x00, 0x00, 0x00,
  0x04, 0x00, 0x00, 0x00, 0x6d, 0x61, 0x69, 0x6e, 0x00, 0x00, 0x0a, 0x00,
  0x10, 0x00, 0x04, 0x00, 0x08, 0x00, 0x0c, 0x00, 0x0a, 0x00, 0x00, 0x00,
  0x01, 0x00, 0x00, 0x00, 0x10, 0x00, 0x00, 0x00, 0x04, 0x00, 0x00, 0x00,
  0x01, 0x00, 0x00, 0x00, 0x07, 0x00, 0x00, 0x00, 0x01, 0x00, 0x00, 0x00,
  0x06, 0x00, 0x00, 0x00, 0xa4, 0xfe, 0xff, 0xff, 0x0e, 0x00, 0x00, 0x00,
  0x00, 0x00, 0x00, 0x0e, 0x01, 0x00, 0x00, 0x00, 0xd4, 0xf7, 0xff, 0xff,
  0x14, 0x00, 0x00, 0x00, 0x08, 0x00, 0x00, 0x00, 0x18, 0x00, 0x00, 0x00,
  0x30, 0x00, 0x00, 0x00, 0x20, 0x00, 0x00, 0x00, 0x02, 0x00, 0x00, 0x00,
  0x01, 0x00, 0x00, 0x00, 0x01, 0x00, 0x00, 0x00, 0x08, 0x00, 0x00, 0x00,
  0x49, 0x64, 0x65, 0x6e, 0x74, 0x69, 0x74, 0x79, 0x00, 0x00, 0x00, 0x00,
  0x02, 0x00, 0x00, 0x00, 0xff, 0xff, 0xff, 0xff, 0x01, 0x00, 0x00, 0x00,
  0xa4, 0xf8, 0xff, 0xff, 0x00, 0x00, 0x0e, 0x00, 0x14, 0x00, 0x00, 0x00,
  0x08, 0x00, 0x0c, 0x00, 0x07, 0x00, 0x10, 0x00, 0x0e, 0x00, 0x00, 0x00,
  0x00, 0x00, 0x00, 0x08, 0x18, 0x00, 0x00, 0x00, 0x0c, 0x00, 0x00, 0x00,
  0x04, 0x00, 0x00, 0x00, 0xdc, 0xf7, 0xff, 0xff, 0x01, 0x00, 0x00, 0x00,
  0x06, 0x00, 0x00, 0x00, 0x03, 0x00, 0x00, 0x00, 0x05, 0x00, 0x00, 0x00,
  0x04, 0x00, 0x00, 0x00, 0x01, 0x00, 0x00, 0x00, 0x58, 0xf8, 0xff, 0xff,
  0x14, 0x00, 0x00, 0x00, 0x07, 0x00, 0x00, 0x00, 0x18, 0x00, 0x00, 0x00,
  0x68, 0x00, 0x00, 0x00, 0x58, 0x00, 0x00, 0x00, 0x02, 0x00, 0x00, 0x00,
  0x01, 0x00, 0x00, 0x00, 0x01, 0x00, 0x00, 0x00, 0x42, 0x00, 0x00, 0x00,
  0x73, 0x65, 0x71, 0x75, 0x65, 0x6e, 0x74, 0x69, 0x61, 0x6c, 0x5f, 0x31,
  0x2f, 0x64, 0x65, 0x6e, 0x73, 0x65, 0x5f, 0x44, 0x65, 0x6e, 0x73, 0x65,
  0x32, 0x2f, 0x4d, 0x61, 0x74, 0x4d, 0x75, 0x6c, 0x3b, 0x73, 0x65, 0x71,
  0x75, 0x65, 0x6e, 0x74, 0x69, 0x61, 0x6c, 0x5f, 0x31, 0x2f, 0x64, 0x65,
  0x6e, 0x73, 0x65, 0x5f, 0x44, 0x65, 0x6e, 0x73, 0x65, 0x32, 0x2f, 0x42,
  0x69, 0x61, 0x73, 0x41, 0x64, 0x64, 0x00, 0x00, 0x02, 0x00, 0x00, 0x00,
  0xff, 0xff, 0xff, 0xff, 0x01, 0x00, 0x00, 0x00, 0x60, 0xf9, 0xff, 0xff,
  0x00, 0x00, 0x0e, 0x00, 0x16, 0x00, 0x00, 0x00, 0x08, 0x00, 0x0c, 0x00,
  0x07, 0x00, 0x10, 0x00, 0x0e, 0x00, 0x00, 0x00, 0x00, 0x00, 0x00, 0x08,
  0x24, 0x00, 0x00, 0x00, 0x18, 0x00, 0x00, 0x00, 0x0c, 0x00, 0x00, 0x00,
  0x00, 0x00, 0x06, 0x00, 0x08, 0x00, 0x07, 0x00, 0x06, 0x00, 0x00, 0x00,
  0x00, 0x00, 0x00, 0x01, 0x01, 0x00, 0x00, 0x00, 0x05, 0x00, 0x00, 0x00,
  0x03, 0x00, 0x00, 0x00, 0x00, 0x00, 0x00, 0x00, 0x03, 0x00, 0x00, 0x00,
  0x02, 0x00, 0x00, 0x00, 0x0c, 0x00, 0x10, 0x00, 0x0b, 0x00, 0x00, 0x00,
  0x0c, 0x00, 0x04, 0x00, 0x0c, 0x00, 0x00, 0x00, 0x09, 0x00, 0x00, 0x00,
  0x00, 0x00, 0x00, 0x09, 0x01, 0x00, 0x00, 0x00, 0x3c, 0xf9, 0xff, 0xff,
  0x14, 0x00, 0x00, 0x00, 0x06, 0x00, 0x00, 0x00, 0x18, 0x00, 0x00, 0x00,
  0x88, 0x00, 0x00, 0x00, 0x78, 0x00, 0x00, 0x00, 0x02, 0x00, 0x00, 0x00,
  0x01, 0x00, 0x00, 0x00, 0x10, 0x00, 0x00, 0x00, 0x61, 0x00, 0x00, 0x00,
  0x73, 0x65, 0x71, 0x75, 0x65, 0x6e, 0x74, 0x69, 0x61, 0x6c, 0x5f, 0x31,
  0x2f, 0x64, 0x65, 0x6e, 0x73, 0x65, 0x5f, 0x44, 0x65, 0x6e, 0x73, 0x65,
  0x31, 0x2f, 0x4d, 0x61, 0x74, 0x4d, 0x75, 0x6c, 0x3b, 0x73, 0x65, 0x71,
  0x75, 0x65, 0x6e, 0x74, 0x69, 0x61, 0x6c, 0x5f, 0x31, 0x2f, 0x64, 0x65,
  0x6e, 0x73, 0x65, 0x5f, 0x44, 0x65, 0x6e, 0x73, 0x65, 0x31, 0x2f, 0x52,
  0x65, 0x6c, 0x75, 0x3b, 0x73, 0x65, 0x71, 0x75, 0x65, 0x6e, 0x74, 0x69,
  0x61, 0x6c, 0x5f, 0x31, 0x2f, 0x64, 0x65, 0x6e, 0x73, 0x65, 0x5f, 0x44,
  0x65, 0x6e, 0x73, 0x65, 0x31, 0x2f, 0x42, 0x69, 0x61, 0x73, 0x41, 0x64,
  0x64, 0x00, 0x00, 0x00, 0x02, 0x00, 0x00, 0x00, 0xff, 0xff, 0xff, 0xff,
  0x10, 0x00, 0x00, 0x00, 0x74, 0xf9, 0xff, 0xff, 0x5e, 0xfa, 0xff, 0xff,
  0x04, 0x00, 0x00, 0x00, 0x40, 0x00, 0x00, 0x00, 0x2e, 0x6f, 0xa2, 0x3e,
  0x46, 0x5a, 0x83, 0x3e, 0xed, 0x9f, 0x7a, 0xbf, 0x41, 0x94, 0x82, 0x3f,
  0x3d, 0x42, 0x6c, 0xbf, 0x2f, 0x55, 0xc9, 0xbd, 0x5f, 0xd7, 0x91, 0x3f,
  0x48, 0xe7, 0xc8, 0xbf, 0x1d, 0x2c, 0x74, 0x3e, 0xb9, 0x57, 0x76, 0xbe,
  0x11, 0xdb, 0x73, 0xbf, 0x81, 0x26, 0x66, 0xbf, 0xec, 0x66, 0x85, 0xbf,
  0x1a, 0xec, 0xfe, 0x3e, 0x31, 0x9a, 0x9c, 0xbe, 0x29, 0x57, 0x7d, 0x3f,
  0x92, 0xfa, 0xff, 0xff, 0x10, 0x00, 0x00, 0x00, 0x05, 0x00, 0x00, 0x00,
  0x14, 0x00, 0x00, 0x00, 0x38, 0x00, 0x00, 0x00, 0x02, 0x00, 0x00, 0x00,
  0x01, 0x00, 0x00, 0x00, 0x10, 0x00, 0x00, 0x00, 0x20, 0x00, 0x00, 0x00,
  0x73, 0x65, 0x71, 0x75, 0x65, 0x6e, 0x74, 0x69, 0x61, 0x6c, 0x5f, 0x31,
  0x2f, 0x64, 0x65, 0x6e, 0x73, 0x65, 0x5f, 0x44, 0x65, 0x6e, 0x73, 0x65,
  0x32, 0x2f, 0x4d, 0x61, 0x74, 0x4d, 0x75, 0x6c, 0x00, 0x00, 0x00, 0x00,
  0x0c, 0xfa, 0xff, 0xff, 0xf6, 0xfa, 0xff, 0xff, 0x04, 0x00, 0x00, 0x00,
  0x00, 0x04, 0x00, 0x00, 0xd6, 0x35, 0xef, 0xbf, 0x23, 0xc6, 0x97, 0xbf,
  0x4a, 0x98, 0x62, 0xbf, 0x33, 0x9c, 0x24, 0xbf, 0xad, 0xe9, 0xc2, 0xbe,
  0x86, 0xf8, 0xad, 0xbe, 0x9f, 0xae, 0x92, 0xbd, 0x70, 0x27, 0x08, 0x3f,
  0xfb, 0x40, 0x6a, 0xbf, 0xcc, 0x7b, 0x28, 0xbe, 0x88, 0x3e, 0x97, 0xbe,
  0x42, 0x51, 0x51, 0xbf, 0xd5, 0x2a, 0x87, 0xbe, 0xd7, 0x13, 0x09, 0xbf,
  0xec, 0x71, 0x06, 0xbf, 0x33, 0xe6, 0xad, 0xbf, 0xe6, 0xb7, 0x80, 0x3e,
  0xcf, 0x7d, 0xa7, 0xbe, 0x1b, 0xb8, 0x10, 0xbe, 0x45, 0x19, 0xe2, 0xbd,
  0xb4, 0x17, 0x54, 0x3d, 0x75, 0x88, 0x41, 0xbe, 0xbd, 0x0a, 0x7a, 0x3e,
  0xbd, 0x15, 0x63, 0xbe, 0xd6, 0x73, 0xf5, 0xbc, 0x9c, 0x58, 0x86, 0xbd,
  0xf5, 0x7b, 0x3e, 0x3e, 0xd5, 0x81, 0xdc, 0xbd, 0x5e, 0xd7, 0x5e, 0xbe,
  0x58, 0xe6, 0xab, 0xbd, 0x6c, 0x2b, 0xf5, 0xbe, 0x57, 0x73, 0x69, 0xbe,
  0x32, 0xb3, 0x1e, 0x3f, 0xdf, 0xb8, 0x88, 0xbf, 0x67, 0x4d, 0x77, 0xbf,
  0xcb, 0xd2, 0x99, 0xbf, 0x10, 0xf1, 0x91, 0xbf, 0x2d, 0xd1, 0x5d, 0xbf,
  0x24, 0x76, 0x9b, 0xbf, 0xb6, 0x8b, 0x71, 0xbf, 0x56, 0x80, 0xab, 0xbf,
  0xe9, 0xf1, 0x26, 0xbf, 0x74, 0x96, 0x58, 0xbf, 0xc7, 0x14, 0x83, 0xbf,
  0x5c, 0x11, 0x80, 0xbf, 0xc4, 0x1d, 0xaa, 0xbf, 0xcc, 0xec, 0xcc, 0xbf,
  0xa7, 0xd3, 0x81, 0xbf, 0x7b, 0x5b, 0x63, 0xbf, 0xa9, 0xbd, 0x88, 0xbf,
  0x86, 0xce, 0x67, 0xbf, 0xe5, 0xc3, 0x07, 0xbf, 0x0b, 0x83, 0x8a, 0xbf,
  0x57, 0x87, 0x4c, 0xbf, 0x37, 0xf1, 0x67, 0xbf, 0x54, 0xf3, 0xd5, 0xbe,
  0xa2, 0xb0, 0x70, 0xbf, 0x2b, 0xa6, 0x87, 0xbf, 0x29, 0xd1, 0x47, 0xbf,
  0xc3, 0xab, 0x9c, 0xbf, 0x7d, 0x97, 0x65, 0xbf, 0x93, 0x78, 0x43, 0xbf,
  0x9d, 0x27, 0x88, 0xbf, 0x67, 0x56, 0xa0, 0xbf, 0xb4, 0xe0, 0xa4, 0xc0,
  0x7f, 0x64, 0xec, 0x3e, 0xdf, 0xb3, 0xec, 0xbf, 0xdc, 0x11, 0x45, 0xbf,
  0xf4, 0x56, 0x5b, 0xbf, 0x2a, 0x11, 0xd4, 0x3e, 0x18, 0x57, 0x32, 0x3f,
  0x33, 0x5e, 0xf9, 0x3f, 0x0a, 0x11, 0xbb, 0xbf, 0x08, 0x9a, 0x8c, 0xbf,
  0xf8, 0xdf, 0x78, 0xbf, 0xdb, 0x6a, 0x86, 0xbf, 0xf6, 0x5c, 0xb3, 0x3f,
  0x03, 0x49, 0x33, 0x3e, 0xe2, 0x1c, 0x17, 0xc0, 0x18, 0x9f, 0x5f, 0xbf,
  0x08, 0x38, 0xb3, 0xbe, 0x51, 0x99, 0x1e, 0xbf, 0xbd, 0x98, 0x9f, 0xbf,
  0x74, 0xec, 0x89, 0xbf, 0x3a, 0x6a, 0x98, 0xbf, 0x83, 0x3e, 0x7a, 0xbf,
  0x7c, 0x20, 0xb0, 0xbf, 0x66, 0x47, 0x2d, 0xbf, 0x92, 0x58, 0x98, 0xbf,
  0x89, 0x3d, 0x97, 0xbf, 0xcb, 0xd5, 0xb5, 0xbf, 0x82, 0xfa, 0x43, 0xbf,
  0x86, 0x84, 0xbc, 0xbf, 0x10, 0xd0, 0x6a, 0xbf, 0xdd, 0x95, 0x45, 0xbf,
  0xfe, 0x7b, 0x8a, 0xbf, 0x08, 0x85, 0x36, 0xbf, 0xf9, 0x0f, 0x7d, 0xbf,
  0x0b, 0xb6, 0x83, 0xbf, 0xc7, 0x01, 0x2a, 0xbf, 0x4f, 0xf1, 0x22, 0xbf,
  0x44, 0xdc, 0x92, 0xbf, 0x1e, 0xb5, 0xdc, 0xbe, 0x5d, 0x53, 0x93, 0xbf,
  0xcc, 0x92, 0x75, 0xbf, 0x58, 0xaa, 0x45, 0xbf, 0x88, 0x59, 0xa2, 0xbf,
  0xa4, 0xc0, 0x89, 0xbf, 0xaf, 0xc3, 0x8c, 0xbf, 0xe2, 0xb2, 0x71, 0xbf,
  0xa4, 0x38, 0x08, 0xbf, 0x7c, 0x0f, 0x7d, 0xbf, 0xa7, 0x52, 0xdc, 0xbe,
  0x2d, 0x40, 0x9c, 0xbf, 0xac, 0xc7, 0xce, 0xbf, 0x50, 0x53, 0x62, 0xbf,
  0x71, 0x21, 0x97, 0xbf, 0xa9, 0x6e, 0x25, 0xbf, 0x11, 0x18, 0x9b, 0xbf,
  0xeb, 0x48, 0x9b, 0x3e, 0xd8, 0xff, 0xfb, 0xbe, 0xa9, 0x33, 0x60, 0xbf,
  0x0f, 0x7a, 0x8f, 0xbf, 0x7b, 0xd8, 0x30, 0xbf, 0x0f, 0x1b, 0xad, 0xbf,
  0x22, 0x2c, 0x24, 0xbf, 0x6e, 0x00, 0x43, 0xbf, 0x8e, 0x96, 0xe9, 0xbf,
  0xf4, 0xea, 0xde, 0xbe, 0x72, 0x6c, 0x6e, 0xbf, 0xa1, 0x58, 0x83, 0xbf,
  0xdb, 0xe7, 0x3e, 0xbf, 0x2c, 0x5f, 0xad, 0xbf, 0x3a, 0x9b, 0x77, 0xbf,
  0x26, 0xb1, 0x50, 0xbf, 0xa6, 0x77, 0xf2, 0xbe, 0xf3, 0x41, 0x92, 0xbf,
  0xdb, 0x7a, 0xc9, 0xbf, 0x2a, 0xbf, 0x8d, 0xbf, 0xb1, 0x3d, 0x55, 0xbf,
  0xda, 0x69, 0x8b, 0xbf, 0xec, 0x30, 0x5b, 0xbf, 0xff, 0x75, 0xa5, 0xbf,
  0xa0, 0x90, 0xab, 0xbf, 0xe8, 0x31, 0x9c, 0x3e, 0x96, 0xe3, 0xd3, 0xbd,
  0x62, 0x9f, 0x35, 0xbe, 0x46, 0x2b, 0x88, 0x3e, 0xa1, 0x78, 0x5a, 0x3e,
  0x84, 0x87, 0xbc, 0xbe, 0xb3, 0x65, 0x3b, 0x3c, 0x5d, 0xbe, 0xff, 0xbe,
  0xf1, 0xd2, 0x30, 0xbe, 0xe5, 0x97, 0x5c, 0xbe, 0x98, 0x49, 0xd4, 0xbe,
  0x89, 0x08, 0x59, 0xbe, 0x80, 0x72, 0xf8, 0xbc, 0x59, 0x61, 0x76, 0xbd,
  0xe6, 0x51, 0x9b, 0xbb, 0x9e, 0xe2, 0x25, 0x3c, 0xc8, 0xf2, 0x6d, 0x3e,
  0x37, 0x0b, 0x3d, 0xbf, 0x4a, 0xf7, 0xa6, 0xbf, 0x93, 0x76, 0x84, 0xbf,
  0x56, 0xd2, 0x50, 0xbf, 0xdd, 0x7b, 0x8f, 0xbf, 0x14, 0x95, 0x83, 0xbf,
  0x96, 0x99, 0xa4, 0xbf, 0xc5, 0x10, 0x9e, 0xbf, 0x76, 0xbc, 0x96, 0xbf,
  0xe4, 0x83, 0x3f, 0xbf, 0x3e, 0x64, 0x97, 0xbf, 0xf4, 0xc0, 0x66, 0xbf,
  0x2c, 0x0a, 0xa0, 0xbf, 0x89, 0xa1, 0x65, 0xbf, 0x2a, 0x9e, 0x93, 0xbf,
  0xbd, 0x1b, 0xde, 0x3e, 0x00, 0x30, 0x75, 0xbf, 0x84, 0xc5, 0xb6, 0xbf,
  0xfb, 0xfe, 0x48, 0xbf, 0xc6, 0x2a, 0x7a, 0xbf, 0x22, 0xbb, 0x32, 0xbf,
  0x8d, 0xde, 0x8a, 0xbf, 0x63, 0x36, 0x8a, 0xbf, 0xe3, 0x1f, 0x82, 0xbf,
  0xae, 0xe1, 0x75, 0xbf, 0xaf, 0x71, 0x70, 0xbf, 0x29, 0xe6, 0x79, 0xbf,
  0x24, 0x3e, 0xab, 0xbf, 0xc9, 0xab, 0x9e, 0xbf, 0xf5, 0xe3, 0x97, 0xbf,
  0x8e, 0x72, 0xb1, 0xbf, 0xb2, 0x12, 0x53, 0x3e, 0xdb, 0xb4, 0xeb, 0xbe,
  0xd6, 0x94, 0x4f, 0xbf, 0x33, 0x5c, 0x8e, 0xbf, 0x49, 0xc5, 0x24, 0xbf,
  0xc3, 0xd6, 0xb1, 0xbf, 0x53, 0x55, 0x30, 0xbf, 0x76, 0xa2, 0xac, 0xbf,
  0xe1, 0xcb, 0x4f, 0xbf, 0x0e, 0xca, 0x71, 0xbf, 0x07, 0x01, 0x88, 0xbf,
  0x02, 0xee, 0x8c, 0xbf, 0x37, 0x93, 0x5a, 0xbf, 0x63, 0xa6, 0x91, 0xbf,
  0xf3, 0x1c, 0x76, 0xbf, 0xe2, 0xf9, 0x6e, 0xbf, 0x48, 0x84, 0xb3, 0xbe,
  0x25, 0xd2, 0x1c, 0xbf, 0x1c, 0x51, 0xaa, 0xbf, 0x01, 0x5c, 0xa5, 0xbf,
  0x47, 0x6d, 0x58, 0xbf, 0x44, 0x8f, 0x80, 0xbf, 0xe0, 0xf1, 0xad, 0xbf,
  0xe7, 0x6e, 0x2b, 0xbf, 0xe6, 0x61, 0x7e, 0xbf, 0x79, 0xc8, 0x84, 0xbf,
  0x0a, 0xba, 0x90, 0xbf, 0xba, 0x79, 0x7c, 0xbf, 0x1c, 0x0c, 0x52, 0xbf,
  0xd5, 0x60, 0xaf, 0xbf, 0x66, 0x75, 0xa9, 0xbf, 0xb6, 0x07, 0x0c, 0xbf,
  0xcf, 0x31, 0xb4, 0xbe, 0x9d, 0x43, 0x3a, 0x3e, 0xd5, 0x79, 0x66, 0xbe,
  0x8a, 0xe1, 0xa4, 0xbd, 0xf6, 0x07, 0x75, 0xbd, 0x39, 0x96, 0xaf, 0xbd,
  0xbe, 0x97, 0x35, 0x3d, 0x8d, 0x86, 0xbf, 0xbe, 0xfe, 0xfb, 0x33, 0xbe,
  0xb1, 0xee, 0x95, 0xbe, 0x4a, 0xeb, 0x89, 0x3c, 0x10, 0x16, 0x6f, 0xbe,
  0x88, 0xd1, 0x89, 0xbc, 0x1a, 0x23, 0xcd, 0x3c, 0x8e, 0xda, 0xb1, 0xbd,
  0xf3, 0xc4, 0xa6, 0x3e, 0xfa, 0xc1, 0xad, 0xbf, 0xb6, 0x50, 0x6b, 0xbf,
  0xee, 0x75, 0x78, 0xbf, 0x46, 0xc0, 0xce, 0xbe, 0x14, 0xe0, 0x24, 0xbf,
  0x2f, 0x40, 0x0c, 0xbf, 0x5e, 0x05, 0x39, 0xbf, 0x20, 0x94, 0x80, 0xbe,
  0x42, 0x5f, 0xa5, 0xbf, 0x81, 0x35, 0x88, 0xbf, 0x3c, 0x0f, 0x7c, 0xbf,
  0x2e, 0x24, 0x6e, 0xbf, 0x6e, 0x71, 0xec, 0xbe, 0xdb, 0xb8, 0x69, 0xbf,
  0xe1, 0xd8, 0x3e, 0xbf, 0x46, 0x56, 0x55, 0xbf, 0xea, 0xfe, 0xff, 0xff,
  0x10, 0x00, 0x00, 0x00, 0x04, 0x00, 0x00, 0x00, 0x14, 0x00, 0x00, 0x00,
  0x38, 0x00, 0x00, 0x00, 0x02, 0x00, 0x00, 0x00, 0x10, 0x00, 0x00, 0x00,
  0x10, 0x00, 0x00, 0x00, 0x20, 0x00, 0x00, 0x00, 0x73, 0x65, 0x71, 0x75,
  0x65, 0x6e, 0x74, 0x69, 0x61, 0x6c, 0x5f, 0x31, 0x2f, 0x64, 0x65, 0x6e,
  0x73, 0x65, 0x5f, 0x44, 0x65, 0x6e, 0x73, 0x65, 0x31, 0x2f, 0x4d, 0x61,
  0x74, 0x4d, 0x75, 0x6c, 0x00, 0x00, 0x00, 0x00, 0x64, 0xfe, 0xff, 0xff,
  0x4e, 0xff, 0xff, 0xff, 0x04, 0x00, 0x00, 0x00, 0x40, 0x00, 0x00, 0x00,
  0xfb, 0x3f, 0x16, 0x3f, 0x00, 0x00, 0x00, 0x00, 0x6e, 0x22, 0x96, 0xbf,
  0x0e, 0xeb, 0x1f, 0xbf, 0x3a, 0x1f, 0x57, 0x40, 0x05, 0x01, 0xff, 0xbe,
  0x38, 0xd2, 0x47, 0xbf, 0x8d, 0xe0, 0xa5, 0x3f, 0x38, 0x49, 0x0b, 0xbf,
  0xd8, 0x2e, 0x8d, 0xbf, 0x42, 0x00, 0x97, 0xbf, 0x37, 0xc4, 0x97, 0xbf,
  0x2e, 0x5c, 0x95, 0xbf, 0x27, 0xb4, 0x19, 0xbf, 0xf8, 0xe4, 0x83, 0xbf,
  0x18, 0x9a, 0x99, 0xbe, 0x82, 0xff, 0xff, 0xff, 0x10, 0x00, 0x00, 0x00,
  0x03, 0x00, 0x00, 0x00, 0x10, 0x00, 0x00, 0x00, 0x50, 0x00, 0x00, 0x00,
  0x01, 0x00, 0x00, 0x00, 0x10, 0x00, 0x00, 0x00, 0x39, 0x00, 0x00, 0x00,
  0x73, 0x65, 0x71, 0x75, 0x65, 0x6e, 0x74, 0x69, 0x61, 0x6c, 0x5f, 0x31,
  0x2f, 0x64, 0x65, 0x6e, 0x73, 0x65, 0x5f, 0x44, 0x65, 0x6e, 0x73, 0x65,
  0x31, 0x2f, 0x42, 0x69, 0x61, 0x73, 0x41, 0x64, 0x64, 0x2f, 0x52, 0x65,
  0x61, 0x64, 0x56, 0x61, 0x72, 0x69, 0x61, 0x62, 0x6c, 0x65, 0x4f, 0x70,
  0x2f, 0x72, 0x65, 0x73, 0x6f, 0x75, 0x72, 0x63, 0x65, 0x00, 0x00, 0x00,
  0x04, 0x00, 0x06, 0x00, 0x04, 0x00, 0x00, 0x00, 0x00, 0x00, 0x06, 0x00,
  0x08, 0x00, 0x04, 0x00, 0x06, 0x00, 0x00, 0x00, 0x04, 0x00, 0x00, 0x00,
  0x04, 0x00, 0x00, 0x00, 0xe3, 0x4d, 0x5f, 0x3f, 0x00, 0x00, 0x0e, 0x00,
  0x14, 0x00, 0x04, 0x00, 0x00, 0x00, 0x08, 0x00, 0x0c, 0x00, 0x10, 0x00,
  0x0e, 0x00, 0x00, 0x00, 0x10, 0x00, 0x00, 0x00, 0x02, 0x00, 0x00, 0x00,
  0x10, 0x00, 0x00, 0x00, 0x4c, 0x00, 0x00, 0x00, 0x01, 0x00, 0x00, 0x00,
  0x01, 0x00, 0x00, 0x00, 0x39, 0x00, 0x00, 0x00, 0x73, 0x65, 0x71, 0x75,
  0x65, 0x6e, 0x74, 0x69, 0x61, 0x6c, 0x5f, 0x31, 0x2f, 0x64, 0x65, 0x6e,
  0x73, 0x65, 0x5f, 0x44, 0x65, 0x6e, 0x73, 0x65, 0x32, 0x2f, 0x42, 0x69,
  0x61, 0x73, 0x41, 0x64, 0x64, 0x2f, 0x52, 0x65, 0x61, 0x64, 0x56, 0x61,
  0x72, 0x69, 0x61, 0x62, 0x6c, 0x65, 0x4f, 0x70, 0x2f, 0x72, 0x65, 0x73,
  0x6f, 0x75, 0x72, 0x63, 0x65, 0x00, 0x00, 0x00, 0x9c, 0xff, 0xff, 0xff,
  0x14, 0x00, 0x18, 0x00, 0x04, 0x00, 0x00, 0x00, 0x08, 0x00, 0x0c, 0x00,
  0x10, 0x00, 0x00, 0x00, 0x00, 0x00, 0x14, 0x00, 0x14, 0x00, 0x00, 0x00,
  0x14, 0x00, 0x00, 0x00, 0x01, 0x00, 0x00, 0x00, 0x18, 0x00, 0x00, 0x00,
  0x38, 0x00, 0x00, 0x00, 0x28, 0x00, 0x00, 0x00, 0x02, 0x00, 0x00, 0x00,
  0x01, 0x00, 0x00, 0x00, 0x10, 0x00, 0x00, 0x00, 0x12, 0x00, 0x00, 0x00,
  0x64, 0x65, 0x6e, 0x73, 0x65, 0x5f, 0x44, 0x65, 0x6e, 0x73, 0x65, 0x31,
  0x5f, 0x69, 0x6e, 0x70, 0x75, 0x74, 0x00, 0x00, 0x02, 0x00, 0x00, 0x00,
  0xff, 0xff, 0xff, 0xff, 0x10, 0x00, 0x00, 0x00, 0xfc, 0xff, 0xff, 0xff,
  0x04, 0x00, 0x04, 0x00, 0x04, 0x00, 0x00, 0x00
};

const unsigned int weight_model_right_length = 2600;