#include "weight_model_left.h"

unsigned char weight_model_left[] = {
  0x1c, 0x00, 0x00, 0x00, 0x54, 0x46, 0x4c, 0x33, 0x14, 0x00, 0x20, 0x00,
  0x04, 0x00, 0x08, 0x00, 0x0c, 0x00, 0x10, 0x00, 0x14, 0x00, 0x00, 0x00,
  0x18, 0x00, 0x1c, 0x00, 0x14, 0x00, 0x00, 0x00, 0x03, 0x00, 0x00, 0x00,
  0x18, 0x00, 0x00, 0x00, 0x20, 0x00, 0x00, 0x00, 0xa4, 0x00, 0x00, 0x00,
  0x20, 0x00, 0x00, 0x00, 0x4c, 0x00, 0x00, 0x00, 0x44, 0x00, 0x00, 0x00,
  0x02, 0x00, 0x00, 0x00, 0xac, 0x02, 0x00, 0x00, 0x40, 0x01, 0x00, 0x00,
  0x01, 0x00, 0x00, 0x00, 0xa8, 0x00, 0x00, 0x00, 0x0a, 0x00, 0x00, 0x00,
  0xd0, 0x09, 0x00, 0x00, 0xcc, 0x09, 0x00, 0x00, 0xe4, 0x08, 0x00, 0x00,
  0x28, 0x08, 0x00, 0x00, 0xcc, 0x03, 0x00, 0x00, 0x30, 0x03, 0x00, 0x00,
  0xb8, 0x09, 0x00, 0x00, 0xb4, 0x09, 0x00, 0x00, 0xb0, 0x09, 0x00, 0x00,
  0x3c, 0x00, 0x00, 0x00, 0x00, 0x00, 0x00, 0x00, 0x01, 0x00, 0x00, 0x00,
  0x0c, 0x00, 0x00, 0x00, 0x08, 0x00, 0x0c, 0x00, 0x04, 0x00, 0x08, 0x00,
  0x08, 0x00, 0x00, 0x00, 0x08, 0x00, 0x00, 0x00, 0x09, 0x00, 0x00, 0x00,
  0x13, 0x00, 0x00, 0x00, 0x6d, 0x69, 0x6e, 0x5f, 0x72, 0x75, 0x6e, 0x74,
  0x69, 0x6d, 0x65, 0x5f, 0x76, 0x65, 0x72, 0x73, 0x69, 0x6f, 0x6e, 0x00,
  0x7a, 0xf7, 0xff, 0xff, 0x04, 0x00, 0x00, 0x00, 0x10, 0x00, 0x00, 0x00,
  0x31, 0x2e, 0x31, 0x34, 0x2e, 0x30, 0x00, 0x00, 0x00, 0x00, 0x00, 0x00,
  0x00, 0x00, 0x00, 0x00, 0x0f, 0x00, 0x00, 0x00, 0x4d, 0x4c, 0x49, 0x52,
  0x20, 0x43, 0x6f, 0x6e, 0x76, 0x65, 0x72, 0x74, 0x65, 0x64, 0x2e, 0x00,
  0x00, 0x00, 0x0e, 0x00, 0x18, 0x00, 0x04, 0x00, 0x08, 0x00, 0x0c, 0x00,
  0x10, 0x00, 0x14, 0x00, 0x0e, 0x00, 0x00, 0x00, 0x14, 0x00, 0x00, 0x00,
  0x34, 0x00, 0x00, 0x00, 0x38, 0x00, 0x00, 0x00, 0x3c, 0x00, 0x00, 0x00,
  0x48, 0x00, 0x00, 0x00, 0x08, 0x00, 0x00, 0x00, 0xc4, 0x08, 0x00, 0x00,
  0x4c, 0x08, 0x00, 0x00, 0xbc, 0x07, 0x00, 0x00, 0x20, 0x07, 0x00, 0x00,
  0xc4, 0x02, 0x00, 0x00, 0xd8, 0x01, 0x00, 0x00, 0xf0, 0x00, 0x00, 0x00,
  0x68, 0x00, 0x00, 0x00, 0x01, 0x00, 0x00, 0x00, 0x00, 0x00, 0x00, 0x00,
  0x01, 0x00, 0x00, 0x00, 0x07, 0x00, 0x00, 0x00, 0x03, 0x00, 0x00, 0x00,
  0x60, 0x01, 0x00, 0x00, 0xa0, 0x00, 0x00, 0x00, 0x18, 0x00, 0x00, 0x00,
  0x04, 0x00, 0x00, 0x00, 0x6d, 0x61, 0x69, 0x6e, 0x00, 0x00, 0x0a, 0x00,
  0x10, 0x00, 0x04, 0x00, 0x08, 0x00, 0x0c, 0x00, 0x0a, 0x00, 0x00, 0x00,
  0x01, 0x00, 0x00, 0x00, 0x10, 0x00, 0x00, 0x00, 0x04, 0x00, 0x00, 0x00,
  0x01, 0x00, 0x00, 0x00, 0x07, 0x00, 0x00, 0x00, 0x01, 0x00, 0x00, 0x00,
  0x06, 0x00, 0x00, 0x00, 0xa4, 0xfe, 0xff, 0xff, 0x0e, 0x00, 0x00, 0x00,
  0x00, 0x00, 0x00, 0x0e, 0x01, 0x00, 0x00, 0x00, 0xd4, 0xf7, 0xff, 0xff,
  0x14, 0x00, 0x00, 0x00, 0x08, 0x00, 0x00, 0x00, 0x18, 0x00, 0x00, 0x00,
  0x30, 0x00, 0x00, 0x00, 0x20, 0x00, 0x00, 0x00, 0x02, 0x00, 0x00, 0x00,
  0x01, 0x00, 0x00, 0x00, 0x01, 0x00, 0x00, 0x00, 0x08, 0x00, 0x00, 0x00,
  0x49, 0x64, 0x65, 0x6e, 0x74, 0x69, 0x74, 0x79, 0x00, 0x00, 0x00, 0x00,
  0x02, 0x00, 0x00, 0x00, 0xff, 0xff, 0xff, 0xff, 0x01, 0x00, 0x00, 0x00,
  0xa4, 0xf8, 0xff, 0xff, 0x00, 0x00, 0x0e, 0x00, 0x14, 0x00, 0x00, 0x00,
  0x08, 0x00, 0x0c, 0x00, 0x07, 0x00, 0x10, 0x00, 0x0e, 0x00, 0x00, 0x00,
  0x00, 0x00, 0x00, 0x08, 0x18, 0x00, 0x00, 0x00, 0x0c, 0x00, 0x00, 0x00,
  0x04, 0x00, 0x00, 0x00, 0xdc, 0xf7, 0xff, 0xff, 0x01, 0x00, 0x00, 0x00,
  0x06, 0x00, 0x00, 0x00, 0x03, 0x00, 0x00, 0x00, 0x05, 0x00, 0x00, 0x00,
  0x04, 0x00, 0x00, 0x00, 0x01, 0x00, 0x00, 0x00, 0x58, 0xf8, 0xff, 0xff,
  0x14, 0x00, 0x00, 0x00, 0x07, 0x00, 0x00, 0x00, 0x18, 0x00, 0x00, 0x00,
  0x68, 0x00, 0x00, 0x00, 0x58, 0x00, 0x00, 0x00, 0x02, 0x00, 0x00, 0x00,
  0x01, 0x00, 0x00, 0x00, 0x01, 0x00, 0x00, 0x00, 0x42, 0x00, 0x00, 0x00,
  0x73, 0x65, 0x71, 0x75, 0x65, 0x6e, 0x74, 0x69, 0x61, 0x6c, 0x5f, 0x31,
  0x2f, 0x64, 0x65, 0x6e, 0x73, 0x65, 0x5f, 0x44, 0x65, 0x6e, 0x73, 0x65,
  0x32, 0x2f, 0x4d, 0x61, 0x74, 0x4d, 0x75, 0x6c, 0x3b, 0x73, 0x65, 0x71,
  0x75, 0x65, 0x6e, 0x74, 0x69, 0x61, 0x6c, 0x5f, 0x31, 0x2f, 0x64, 0x65,
  0x6e, 0x73, 0x65, 0x5f, 0x44, 0x65, 0x6e, 0x73, 0x65, 0x32, 0x2f, 0x42,
  0x69, 0x61, 0x73, 0x41, 0x64, 0x64, 0x00, 0x00, 0x02, 0x00, 0x00, 0x00,
  0xff, 0xff, 0xff, 0xff, 0x01, 0x00, 0x00, 0x00, 0x60, 0xf9, 0xff, 0xff,
  0x00, 0x00, 0x0e, 0x00, 0x16, 0x00, 0x00, 0x00, 0x08, 0x00, 0x0c, 0x00,
  0x07, 0x00, 0x10, 0x00, 0x0e, 0x00, 0x00, 0x00, 0x00, 0x00, 0x00, 0x08,
  0x24, 0x00, 0x00, 0x00, 0x18, 0x00, 0x00, 0x00, 0x0c, 0x00, 0x00, 0x00,
  0x00, 0x00, 0x06, 0x00, 0x08, 0x00, 0x07, 0x00, 0x06, 0x00, 0x00, 0x00,
  0x00, 0x00, 0x00, 0x01, 0x01, 0x00, 0x00, 0x00, 0x05, 0x00, 0x00, 0x00,
  0x03, 0x00, 0x00, 0x00, 0x00, 0x00, 0x00, 0x00, 0x03, 0x00, 0x00, 0x00,
  0x02, 0x00, 0x00, 0x00, 0x0c, 0x00, 0x10, 0x00, 0x0b, 0x00, 0x00, 0x00,
  0x0c, 0x00, 0x04, 0x00, 0x0c, 0x00, 0x00, 0x00, 0x09, 0x00, 0x00, 0x00,
  0x00, 0x00, 0x00, 0x09, 0x01, 0x00, 0x00, 0x00, 0x3c, 0xf9, 0xff, 0xff,
  0x14, 0x00, 0x00, 0x00, 0x06, 0x00, 0x00, 0x00, 0x18, 0x00, 0x00, 0x00,
  0x88, 0x00, 0x00, 0x00, 0x78, 0x00, 0x00, 0x00, 0x02, 0x00, 0x00, 0x00,
  0x01, 0x00, 0x00, 0x00, 0x10, 0x00, 0x00, 0x00, 0x61, 0x00, 0x00, 0x00,
  0x73, 0x65, 0x71, 0x75, 0x65, 0x6e, 0x74, 0x69, 0x61, 0x6c, 0x5f, 0x31,
  0x2f, 0x64, 0x65, 0x6e, 0x73, 0x65, 0x5f, 0x44, 0x65, 0x6e, 0x73, 0x65,
  0x31, 0x2f, 0x4d, 0x61, 0x74, 0x4d, 0x75, 0x6c, 0x3b, 0x73, 0x65, 0x71,
  0x75, 0x65, 0x6e, 0x74, 0x69, 0x61, 0x6c, 0x5f, 0x31, 0x2f, 0x64, 0x65,
  0x6e, 0x73, 0x65, 0x5f, 0x44, 0x65, 0x6e, 0x73, 0x65, 0x31, 0x2f, 0x52,
  0x65, 0x6c, 0x75, 0x3b, 0x73, 0x65, 0x71, 0x75, 0x65, 0x6e, 0x74, 0x69,
  0x61, 0x6c, 0x5f, 0x31, 0x2f, 0x64, 0x65, 0x6e, 0x73, 0x65, 0x5f, 0x44,
  0x65, 0x6e, 0x73, 0x65, 0x31, 0x2f, 0x42, 0x69, 0x61, 0x73, 0x41, 0x64,
  0x64, 0x00, 0x00, 0x00, 0x02, 0x00, 0x00, 0x00, 0xff, 0xff, 0xff, 0xff,
  0x10, 0x00, 0x00, 0x00, 0x74, 0xf9, 0xff, 0xff, 0x5e, 0xfa, 0xff, 0xff,
  0x04, 0x00, 0x00, 0x00, 0x40, 0x00, 0x00, 0x00, 0x24, 0x93, 0x33, 0x3f,
  0x8d, 0x35, 0xf5, 0x3d, 0x30, 0x65, 0x46, 0xbd, 0x1e, 0x4e, 0x35, 0x3f,
  0x5b, 0xb2, 0x13, 0x3f, 0x50, 0xb8, 0x93, 0x3e, 0x64, 0xcd, 0x21, 0x3f,
  0xcb, 0x01, 0xf4, 0x3d, 0xe5, 0x2b, 0x1c, 0xbf, 0xbf, 0x70, 0x25, 0x3f,
  0x85, 0x60, 0xff, 0x3d, 0x06, 0x6d, 0x2e, 0xbe, 0x05, 0xb2, 0x99, 0xbc,
  0x75, 0xfd, 0x4e, 0x3e, 0x35, 0x59, 0x82, 0x3f, 0x0d, 0x39, 0x11, 0x3f,
  0x92, 0xfa, 0xff, 0xff, 0x10, 0x00, 0x00, 0x00, 0x05, 0x00, 0x00, 0x00,
  0x14, 0x00, 0x00, 0x00, 0x38, 0x00, 0x00, 0x00, 0x02, 0x00, 0x00, 0x00,
  0x01, 0x00, 0x00, 0x00, 0x10, 0x00, 0x00, 0x00, 0x20, 0x00, 0x00, 0x00,
  0x73, 0x65, 0x71, 0x75, 0x65, 0x6e, 0x74, 0x69, 0x61, 0x6c, 0x5f, 0x31,
  0x2f, 0x64, 0x65, 0x6e, 0x73, 0x65, 0x5f, 0x44, 0x65, 0x6e, 0x73, 0x65,
  0x32, 0x2f, 0x4d, 0x61, 0x74, 0x4d, 0x75, 0x6c, 0x00, 0x00, 0x00, 0x00,
  0x0c, 0xfa, 0xff, 0xff, 0xf6, 0xfa, 0xff, 0xff, 0x04, 0x00, 0x00, 0x00,
  0x00, 0x04, 0x00, 0x00, 0x6a, 0x4c, 0x13, 0xbf, 0x80, 0x62, 0x22, 0xbf,
  0x7d, 0x55, 0x53, 0xbf, 0x81, 0x37, 0x80, 0xbf, 0x8a, 0x10, 0x2f, 0xbf,
  0xf4, 0xcb, 0xb4, 0xbf, 0x85, 0x9c, 0xb5, 0xbf, 0xe7, 0x68, 0x65, 0xbf,
  0x12, 0x63, 0x9f, 0xbf, 0x08, 0xc4, 0x85, 0xbf, 0x0a, 0xa1, 0x88, 0xbf,
  0x22, 0x93, 0x82, 0xbf, 0xec, 0x7a, 0x27, 0xbf, 0x47, 0x9c, 0x2c, 0xbf,
  0x5d, 0x92, 0xb9, 0xbf, 0xd5, 0x03, 0xb1, 0xbf, 0xc5, 0x9b, 0x8f, 0xbd,
  0xf0, 0x28, 0x47, 0xbe, 0xd3, 0x45, 0xa2, 0x3d, 0x90, 0xf2, 0x0d, 0xbe,
  0x2e, 0xb7, 0xae, 0xbe, 0x05, 0x9f, 0x4b, 0x3c, 0xa1, 0xf6, 0x22, 0xbd,
  0xed, 0xd4, 0xaf, 0xbe, 0xff, 0x14, 0x9a, 0x3e, 0x7d, 0x3d, 0x7d, 0xbd,
  0x59, 0x50, 0xa4, 0xbe, 0xc3, 0xeb, 0x0d, 0xbf, 0xe7, 0x87, 0xf3, 0xbd,
  0xfe, 0xae, 0x00, 0xbf, 0x4e, 0x76, 0x51, 0xbe, 0x6a, 0x53, 0x04, 0x3d,
  0xa7, 0x1b, 0x80, 0x3e, 0xaf, 0x6f, 0x58, 0xbd, 0x08, 0xf5, 0xae, 0x3c,
  0xcf, 0x55, 0x87, 0xbd, 0xa9, 0x22, 0x3b, 0x3c, 0xac, 0xa9, 0x53, 0x3d,
  0x97, 0x54, 0x9a, 0xbe, 0x9a, 0x62, 0x90, 0xbe, 0x80, 0xd7, 0xd4, 0xbe,
  0xe4, 0x84, 0x4f, 0xbe, 0xa3, 0x1e, 0xbc, 0x3e, 0xa1, 0x7a, 0xf3, 0xbd,
  0x8f, 0x82, 0xb9, 0xbe, 0x79, 0x80, 0x19, 0xbe, 0x1f, 0xed, 0x01, 0x3e,
  0x47, 0x02, 0x5a, 0xbe, 0x62, 0x20, 0xb4, 0x3f, 0xad, 0xf6, 0xb5, 0xbf,
  0x7d, 0x7b, 0xab, 0xbf, 0xaf, 0xd7, 0x2e, 0xbf, 0x3e, 0xe6, 0xb0, 0xbe,
  0x76, 0xb4, 0x90, 0x3e, 0x30, 0x2d, 0xb1, 0x3f, 0xa2, 0x76, 0xb3, 0x3f,
  0x1f, 0x45, 0x48, 0x40, 0xe4, 0xf7, 0x70, 0x3f, 0xa3, 0x70, 0x4c, 0x3f,
  0x1f, 0xc9, 0x70, 0x3f, 0xbe, 0x4d, 0x5d, 0x3e, 0xfe, 0x95, 0x4c, 0x3f,
  0xed, 0x60, 0x22, 0xbf, 0xfd, 0x8f, 0xfb, 0x3f, 0x9b, 0xe0, 0x4c, 0xbf,
  0x7c, 0x4c, 0xa3, 0xbf, 0x66, 0x7e, 0x88, 0xbf, 0xcb, 0xa3, 0x83, 0xbf,
  0x17, 0x32, 0x89, 0xbf, 0x87, 0xda, 0x82, 0xbf, 0x8b, 0xe5, 0x4e, 0xbf,
  0xb9, 0xf9, 0x80, 0xbf, 0xfa, 0xd7, 0x7b, 0xbf, 0x58, 0x56, 0x40, 0xbf,
  0x9c, 0x62, 0x72, 0xbf, 0xd8, 0x00, 0x5a, 0xbf, 0x8d, 0x58, 0x53, 0xbf,
  0xcf, 0xab, 0x2f, 0xbf, 0x18, 0xb7, 0x7b, 0xbf, 0xe6, 0xc3, 0x9a, 0xbf,
  0x4e, 0xac, 0xa9, 0xbf, 0x99, 0x3b, 0x45, 0xc0, 0x0a, 0xa8, 0xd3, 0x3f,
  0x60, 0x92, 0xc4, 0xbf, 0xe0, 0xcc, 0xbf, 0xbf, 0x2f, 0xa6, 0xf8, 0x3f,
  0x3a, 0xc9, 0x5e, 0x3f, 0x30, 0x08, 0xe4, 0x3e, 0x1c, 0x76, 0x15, 0x40,
  0xd1, 0x10, 0xb7, 0xbe, 0xe5, 0xa4, 0x94, 0x3e, 0x75, 0x83, 0x37, 0xbd,
  0x6a, 0xb7, 0x13, 0xbf, 0xeb, 0x9f, 0x83, 0xbe, 0xee, 0xfc, 0xe2, 0x3e,
  0x40, 0x58, 0xcb, 0x3f, 0x28, 0x21, 0x37, 0xbf, 0xbf, 0xe6, 0x21, 0xbf,
  0xbc, 0x14, 0x26, 0xbf, 0x4a, 0xc3, 0x17, 0xbf, 0xae, 0x39, 0x3c, 0xbe,
  0xc8, 0x6c, 0x70, 0xbf, 0x15, 0xd5, 0x44, 0xbf, 0x65, 0x9a, 0xa7, 0xbe,
  0xfb, 0xd0, 0x35, 0xbf, 0x73, 0x6f, 0x09, 0xbf, 0xc3, 0xb6, 0x57, 0xbf,
  0xce, 0x79, 0x57, 0xbf, 0x1e, 0xf3, 0x0a, 0xbf, 0xcb, 0xdf, 0xcd, 0xbe,
  0x2d, 0xe6, 0x90, 0xbf, 0x08, 0x7b, 0x95, 0xbf, 0x97, 0x93, 0xc5, 0xbd,
  0xee, 0x3c, 0x84, 0x3e, 0xcb, 0x1a, 0x18, 0xbd, 0x58, 0xc0, 0xaa, 0x3d,
  0x93, 0x7f, 0x21, 0xbe, 0xc6, 0xa0, 0x13, 0xbe, 0x42, 0x6d, 0xcf, 0xbe,
  0x87, 0x0b, 0x2c, 0xbe, 0x51, 0x6e, 0x8d, 0xbe, 0x71, 0x86, 0xa2, 0x3c,
  0xfc, 0xdd, 0xa3, 0xbd, 0x80, 0xb9, 0x3c, 0xbe, 0x88, 0x59, 0x4f, 0xbe,
  0x55, 0xc7, 0xcf, 0x3e, 0x5f, 0x8b, 0x5c, 0x3e, 0xde, 0x9e, 0x75, 0xbe,
  0x56, 0x28, 0x16, 0xbf, 0xb8, 0x9c, 0x92, 0x3e, 0xf7, 0x75, 0x1e, 0x3f,
  0x3d, 0x91, 0xae, 0x3d, 0xd5, 0x16, 0x7c, 0xbe, 0x75, 0x2f, 0x8f, 0xbe,
  0x80, 0xe8, 0x91, 0xbe, 0x5b, 0x6e, 0x87, 0xbf, 0x1a, 0x35, 0x6f, 0xbf,
  0xf0, 0x3e, 0x65, 0xbf, 0xc7, 0x72, 0xeb, 0xbe, 0xb9, 0x09, 0x37, 0xbc,
  0xfa, 0x7d, 0x4a, 0xbf, 0xd7, 0x9c, 0x60, 0xbf, 0x33, 0x2a, 0x1e, 0x3e,
  0xe9, 0x98, 0x93, 0xbe, 0xaf, 0xc1, 0x24, 0xbf, 0x9d, 0x27, 0x1f, 0xbf,
  0xcd, 0x8d, 0x09, 0xbf, 0x3d, 0x25, 0x14, 0xbf, 0xec, 0xfa, 0x5b, 0xbf,
  0x16, 0x95, 0x61, 0xbf, 0x88, 0x1b, 0x72, 0xbf, 0xef, 0x7d, 0x2a, 0xbf,
  0xba, 0x3d, 0xbc, 0xbf, 0x3c, 0x00, 0x44, 0xbf, 0x3c, 0x19, 0x88, 0xbf,
  0x4a, 0xce, 0x67, 0xbf, 0x50, 0x04, 0x58, 0xbf, 0x38, 0xd6, 0x6e, 0xbf,
  0xad, 0xaa, 0x91, 0xbf, 0xff, 0x99, 0xc4, 0xbf, 0xcb, 0x01, 0x69, 0xbe,
  0x7f, 0x16, 0xa2, 0x3e, 0x6d, 0xb3, 0xa4, 0xbd, 0x58, 0x2b, 0x36, 0xbe,
  0x6f, 0x84, 0xf5, 0x3e, 0x0b, 0x2e, 0x6d, 0xbe, 0xa5, 0xbc, 0x9f, 0xbe,
  0xf1, 0xb9, 0xb5, 0xbe, 0x80, 0x5c, 0x90, 0xbe, 0x44, 0x0a, 0x5f, 0xbd,
  0x18, 0xe7, 0x14, 0xbf, 0x8f, 0x56, 0xd4, 0xbe, 0x9f, 0x65, 0xd9, 0x3e,
  0xdf, 0xb1, 0x7f, 0xbe, 0xa8, 0xb7, 0x4e, 0xbe, 0x40, 0x84, 0x04, 0xbe,
  0x37, 0x86, 0x19, 0xbe, 0x4c, 0xf0, 0xb1, 0xbe, 0xb3, 0x37, 0xb4, 0xbc,
  0x7b, 0xac, 0x85, 0xbd, 0xa5, 0xcd, 0xb3, 0xbe, 0xe8, 0xea, 0x5d, 0xbd,
  0x3d, 0x39, 0xe3, 0xbe, 0xd0, 0xed, 0xbb, 0x3e, 0x18, 0xc4, 0x95, 0x3e,
  0x0e, 0x81, 0x80, 0x3d, 0xb2, 0x78, 0x06, 0x3d, 0x8f, 0x70, 0xc3, 0xbe,
  0x19, 0x93, 0x07, 0xbd, 0x74, 0x9b, 0xa7, 0xbc, 0xa9, 0x26, 0x55, 0xbe,
  0xf3, 0xc4, 0x81, 0xbd, 0x0d, 0xc3, 0x06, 0x3e, 0x18, 0x55, 0xa1, 0xbe,
  0x14, 0x76, 0x12, 0xbe, 0x08, 0xb6, 0xcc, 0xbd, 0x33, 0xd3, 0x71, 0xbd,
  0x27, 0x20, 0x20, 0x3e, 0x9e, 0xf6, 0xcc, 0xbe, 0xc3, 0x84, 0x5a, 0x3e,
  0x27, 0xb9, 0x36, 0x3e, 0x5e, 0x61, 0x51, 0x3e, 0x6c, 0xdd, 0x65, 0xbe,
  0x9e, 0x4b, 0xe5, 0xbe, 0x3a, 0x79, 0x40, 0xbd, 0xa1, 0x0d, 0x23, 0xbe,
  0xc3, 0x81, 0x05, 0xbe, 0x12, 0xe2, 0xfc, 0x3d, 0xbb, 0x32, 0xcc, 0xbd,
  0x04, 0x0b, 0xfb, 0xbf, 0x42, 0xbd, 0x2e, 0xbf, 0x47, 0x99, 0x95, 0xbf,
  0x03, 0x15, 0x9f, 0xbf, 0xc0, 0x1c, 0xa9, 0x3e, 0x60, 0x53, 0xdb, 0x3e,
  0xb4, 0x15, 0x1c, 0x3e, 0x7c, 0xa7, 0x9d, 0x3f, 0x2e, 0x9e, 0x39, 0x3d,
  0xf7, 0x34, 0x61, 0x3f, 0x97, 0x10, 0xb3, 0x3e, 0xc3, 0x1f, 0xc2, 0xbd,
  0x0a, 0x57, 0x5e, 0x3e, 0x6f, 0xa5, 0x88, 0x3f, 0xf1, 0xb5, 0xdd, 0x3f,
  0x7a, 0x54, 0xc4, 0xbe, 0xc5, 0xac, 0x46, 0xbf, 0xf3, 0x70, 0x2b, 0xbf,
  0xbf, 0xd0, 0x96, 0xbf, 0xbe, 0x7d, 0xa1, 0xbf, 0x21, 0x29, 0x47, 0xbf,
  0x3e, 0xfd, 0x53, 0xbf, 0x83, 0xbc, 0x95, 0xbf, 0x48, 0x55, 0xaa, 0xbf,
  0x6a, 0x31, 0x9d, 0xbf, 0x8a, 0x80, 0x18, 0xbf, 0x51, 0x69, 0xad, 0xbf,
  0x70, 0x42, 0x9a, 0xbf, 0xcf, 0x09, 0x70, 0xbf, 0x0c, 0x6d, 0x3c, 0xbf,
  0xd9, 0x3d, 0x5a, 0xbf, 0xf2, 0x63, 0x9e, 0x3f, 0xc1, 0x11, 0xad, 0xbf,
  0xbe, 0xef, 0x78, 0x3e, 0x95, 0xe3, 0xa0, 0xbe, 0x8d, 0xd1, 0x28, 0xbf,
  0x2c, 0x64, 0xb7, 0x3f, 0x97, 0x90, 0x01, 0x40, 0x58, 0x93, 0xd4, 0x3f,
  0x6c, 0xf4, 0x51, 0x40, 0x12, 0x0e, 0x6c, 0x3f, 0x8a, 0x86, 0x0e, 0x3e,
  0x20, 0x41, 0xc0, 0xbe, 0x48, 0xfb, 0x87, 0xbf, 0xb3, 0x31, 0x46, 0xbf,
  0x35, 0x31, 0x39, 0xbf, 0x8d, 0x5f, 0x82, 0x3f, 0xea, 0xfe, 0xff, 0xff,
  0x10, 0x00, 0x00, 0x00, 0x04, 0x00, 0x00, 0x00, 0x14, 0x00, 0x00, 0x00,
  0x38, 0x00, 0x00, 0x00, 0x02, 0x00, 0x00, 0x00, 0x10, 0x00, 0x00, 0x00,
  0x10, 0x00, 0x00, 0x00, 0x20, 0x00, 0x00, 0x00, 0x73, 0x65, 0x71, 0x75,
  0x65, 0x6e, 0x74, 0x69, 0x61, 0x6c, 0x5f, 0x31, 0x2f, 0x64, 0x65, 0x6e,
  0x73, 0x65, 0x5f, 0x44, 0x65, 0x6e, 0x73, 0x65, 0x31, 0x2f, 0x4d, 0x61,
  0x74, 0x4d, 0x75, 0x6c, 0x00, 0x00, 0x00, 0x00, 0x64, 0xfe, 0xff, 0xff,
  0x4e, 0xff, 0xff, 0xff, 0x04, 0x00, 0x00, 0x00, 0x40, 0x00, 0x00, 0x00,
  0x95, 0x33, 0x0a, 0xbf, 0x6e, 0xa8, 0x66, 0xbf, 0x8b, 0xd8, 0x60, 0xbf,
  0x22, 0xb9, 0x71, 0xbf, 0x69, 0x27, 0x33, 0xbf, 0x46, 0x6a, 0xd3, 0xbf,
  0x34, 0x10, 0xd7, 0xbe, 0x00, 0x00, 0x00, 0x00, 0x77, 0xaf, 0xd4, 0x3f,
  0x97, 0xba, 0x22, 0xbf, 0x81, 0x65, 0x15, 0xbf, 0x00, 0x00, 0x00, 0x00,
  0x00, 0x00, 0x00, 0x00, 0x92, 0x09, 0xc0, 0xbf, 0x3a, 0xe4, 0x8c, 0xbf,
  0x4b, 0x08, 0x31, 0xc0, 0x82, 0xff, 0xff, 0xff, 0x10, 0x00, 0x00, 0x00,
  0x03, 0x00, 0x00, 0x00, 0x10, 0x00, 0x00, 0x00, 0x50, 0x00, 0x00, 0x00,
  0x01, 0x00, 0x00, 0x00, 0x10, 0x00, 0x00, 0x00, 0x39, 0x00, 0x00, 0x00,
  0x73, 0x65, 0x71, 0x75, 0x65, 0x6e, 0x74, 0x69, 0x61, 0x6c, 0x5f, 0x31,
  0x2f, 0x64, 0x65, 0x6e, 0x73, 0x65, 0x5f, 0x44, 0x65, 0x6e, 0x73, 0x65,
  0x31, 0x2f, 0x42, 0x69, 0x61, 0x73, 0x41, 0x64, 0x64, 0x2f, 0x52, 0x65,
  0x61, 0x64, 0x56, 0x61, 0x72, 0x69, 0x61, 0x62, 0x6c, 0x65, 0x4f, 0x70,
  0x2f, 0x72, 0x65, 0x73, 0x6f, 0x75, 0x72, 0x63, 0x65, 0x00, 0x00, 0x00,
  0x04, 0x00, 0x06, 0x00, 0x04, 0x00, 0x00, 0x00, 0x00, 0x00, 0x06, 0x00,
  0x08, 0x00, 0x04, 0x00, 0x06, 0x00, 0x00, 0x00, 0x04, 0x00, 0x00, 0x00,
  0x04, 0x00, 0x00, 0x00, 0xd8, 0xf0, 0x22, 0xc0, 0x00, 0x00, 0x0e, 0x00,
  0x14, 0x00, 0x04, 0x00, 0x00, 0x00, 0x08, 0x00, 0x0c, 0x00, 0x10, 0x00,
  0x0e, 0x00, 0x00, 0x00, 0x10, 0x00, 0x00, 0x00, 0x02, 0x00, 0x00, 0x00,
  0x10, 0x00, 0x00, 0x00, 0x4c, 0x00, 0x00, 0x00, 0x01, 0x00, 0x00, 0x00,
  0x01, 0x00, 0x00, 0x00, 0x39, 0x00, 0x00, 0x00, 0x73, 0x65, 0x71, 0x75,
  0x65, 0x6e, 0x74, 0x69, 0x61, 0x6c, 0x5f, 0x31, 0x2f, 0x64, 0x65, 0x6e,
  0x73, 0x65, 0x5f, 0x44, 0x65, 0x6e, 0x73, 0x65, 0x32, 0x2f, 0x42, 0x69,
  0x61, 0x73, 0x41, 0x64, 0x64, 0x2f, 0x52, 0x65, 0x61, 0x64, 0x56, 0x61,
  0x72, 0x69, 0x61, 0x62, 0x6c, 0x65, 0x4f, 0x70, 0x2f, 0x72, 0x65, 0x73,
  0x6f, 0x75, 0x72, 0x63, 0x65, 0x00, 0x00, 0x00, 0x9c, 0xff, 0xff, 0xff,
  0x14, 0x00, 0x18, 0x00, 0x04, 0x00, 0x00, 0x00, 0x08, 0x00, 0x0c, 0x00,
  0x10, 0x00, 0x00, 0x00, 0x00, 0x00, 0x14, 0x00, 0x14, 0x00, 0x00, 0x00,
  0x14, 0x00, 0x00, 0x00, 0x01, 0x00, 0x00, 0x00, 0x18, 0x00, 0x00, 0x00,
  0x38, 0x00, 0x00, 0x00, 0x28, 0x00, 0x00, 0x00, 0x02, 0x00, 0x00, 0x00,
  0x01, 0x00, 0x00, 0x00, 0x10, 0x00, 0x00, 0x00, 0x12, 0x00, 0x00, 0x00,
  0x64, 0x65, 0x6e, 0x73, 0x65, 0x5f, 0x44, 0x65, 0x6e, 0x73, 0x65, 0x31,
  0x5f, 0x69, 0x6e, 0x70, 0x75, 0x74, 0x00, 0x00, 0x02, 0x00, 0x00, 0x00,
  0xff, 0xff, 0xff, 0xff, 0x10, 0x00, 0x00, 0x00, 0xfc, 0xff, 0xff, 0xff,
  0x04, 0x00, 0x04, 0x00, 0x04, 0x00, 0x00, 0x00
};

const unsigned int weight_model_left_length = 2600;